{"0": "\u0000", "1": "\u0001", "2": "\u0002", "3": "\u0003", "4": "\u0004", "5": "\u0005", "6": "\u0006", "7": "\u0007", "8": "\b", "9": "\t", "10": "\n", "11": "\u000b", "12": "\f", "13": "\r", "14": "\u000e", "15": "\u000f", "16": "\u0010", "17": "\u0011", "18": "\u0012", "19": "\u0013", "20": "\u0014", "21": "\u0015", "22": "\u0016", "23": "\u0017", "24": "\u0018", "25": "\u0019", "26": "\u001a", "27": "\u001b", "28": "\u001c", "29": "\u001d", "30": "\u001e", "31": "\u001f", "32": " ", "33": "!", "34": "\"", "35": "#", "36": "$", "37": "%", "38": "&", "39": "'", "40": "(", "41": ")", "42": "*", "43": "+", "44": ",", "45": "-", "46": ".", "47": "/", "48": "0", "49": "1", "50": "2", "51": "3", "52": "4", "53": "5", "54": "6", "55": "7", "56": "8", "57": "9", "58": ":", "59": ";", "60": "<", "61": "=", "62": ">", "63": "?", "64": "@", "65": "A", "66": "B", "67": "C", "68": "D", "69": "E", "70": "F", "71": "G", "72": "H", "73": "I", "74": "J", "75": "K", "76": "L", "77": "M", "78": "N", "79": "O", "80": "P", "81": "Q", "82": "R", "83": "S", "84": "T", "85": "U", "86": "V", "87": "W", "88": "X", "89": "Y", "90": "Z", "91": "[", "92": "\\", "93": "]", "94": "^", "95": "_", "96": "`", "97": "a", "98": "b", "99": "c", "100": "d", "101": "e", "102": "f", "103": "g", "104": "h", "105": "i", "106": "j", "107": "k", "108": "l", "109": "m", "110": "n", "111": "o", "112": "p", "113": "q", "114": "r", "115": "s", "116": "t", "117": "u", "118": "v", "119": "w", "120": "x", "121": "y", "122": "z", "123": "{", "124": "|", "125": "}", "126": "~", "127": "\u007f", "128": "\u0080", "129": "\u0081", "130": "\u0082", "131": "\u0083", "132": "\u0084", "133": "\u0085", "134": "\u0086", "135": "\u0087", "136": "\u0088", "137": "\u0089", "138": "\u008a", "139": "\u008b", "140": "\u008c", "141": "\u008d", "142": "\u008e", "143": "\u008f", "144": "\u0090", "145": "\u0091", "146": "\u0092", "147": "\u0093", "148": "\u0094", "149": "\u0095", "150": "\u0096", "151": "\u0097", "152": "\u0098", "153": "\u0099", "154": "\u009a", "155": "\u009b", "156": "\u009c", "157": "\u009d", "158": "\u009e", "159": "\u009f", "160": "\u00a0", "161": "\u00a1", "162": "\u00a2", "163": "\u00a3", "164": "\u00a4", "165": "\u00a5", "166": "\u00a6", "167": "\u00a7", "168": "\u00a8", "169": "\u00a9", "170": "\u00aa", "171": "\u00ab", "172": "\u00ac", "173": "\u00ad", "174": "\u00ae", "175": "\u00af", "176": "\u00b0", "177": "\u00b1", "178": "\u00b2", "179": "\u00b3", "180": "\u00b4", "181": "\u00b5", "182": "\u00b6", "183": "\u00b7", "184": "\u00b8", "185": "\u00b9", "186": "\u00ba", "187": "\u00bb", "188": "\u00bc", "189": "\u00bd", "190": "\u00be", "191": "\u00bf", "192": "\u00c0", "193": "\u00c1", "194": "\u00c2", "195": "\u00c3", "196": "\u00c4", "197": "\u00c5", "198": "\u00c6", "199": "\u00c7", "200": "\u00c8", "201": "\u00c9", "202": "\u00ca", "203": "\u00cb", "204": "\u00cc", "205": "\u00cd", "206": "\u00ce", "207": "\u00cf", "208": "\u00d0", "209": "\u00d1", "210": "\u00d2", "211": "\u00d3", "212": "\u00d4", "213": "\u00d5", "214": "\u00d6", "215": "\u00d7", "216": "\u00d8", "217": "\u00d9", "218": "\u00da", "219": "\u00db", "220": "\u00dc", "221": "\u00dd", "222": "\u00de", "223": "\u00df", "224": "\u00e0", "225": "\u00e1", "226": "\u00e2", "227": "\u00e3", "228": "\u00e4", "229": "\u00e5", "230": "\u00e6", "231": "\u00e7", "232": "\u00e8", "233": "\u00e9", "234": "\u00ea", "235": "\u00eb", "236": "\u00ec", "237": "\u00ed", "238": "\u00ee", "239": "\u00ef", "240": "\u00f0", "241": "\u00f1", "242": "\u00f2", "243": "\u00f3", "244": "\u00f4", "245": "\u00f5", "246": "\u00f6", "247": "\u00f7", "248": "\u00f8", "249": "\u00f9", "250": "\u00fa", "251": "\u00fb", "252": "\u00fc", "253": "\u00fd", "254": "\u00fe", "255": "\u00ff", "256": "<|endoftext|>", "257": " t", "258": " a", "259": "he", "260": "in", "261": "re", "262": " the", "263": "on", "264": "er", "265": " s", "266": " w", "267": "at", "268": " o", "269": "en", "270": " c", "271": "it", "272": "is", "273": "an", "274": "or", "275": " b", "276": "es", "277": "ed", "278": " f", "279": "ing", "280": " p", "281": "ou", "282": " an", "283": "al", "284": " to", "285": "ar", "286": " m", "287": " in", "288": " of", "289": " h", "290": " d", "291": "\u00e2\u0080", "292": "as", "293": "ic", "294": " and", "295": " th", "296": "le", "297": "om", "298": "ion", "299": "ll", "300": "ent", "301": " n", "302": " l", "303": " re", "304": "st", "305": "ve", "306": " e", "307": "ly", "308": "ro", "309": " be", "310": " g", "311": "id", "312": "ut", "313": "ac", "314": "ot", "315": " T", "316": " I", "317": " that", "318": " on", "319": "ay", "320": " S", "321": " is", "322": "et", "323": "im", "324": "am", "325": "ad", "326": "ow", "327": "se", "328": "ig", "329": " for", "330": "\u00e2\u0080\u0099", "331": " A", "332": "ver", "333": "ur", "334": "ct", "335": "ld", "336": " C", "337": " u", "338": " st", "339": " y", "340": " it", "341": " he", "342": "ir", "343": "ation", "344": "ith", "345": " wh", "346": " M", "347": "ce", "348": "ter", "349": "ol", "350": " we", "351": "il", "352": " with", "353": " as", "354": " B", "355": "ch", "356": "ill", "357": "nd", "358": " P", "359": " was", "360": "ers", "361": " you", "362": "ke", "363": " \u00e2\u0080", "364": " con", "365": " de", "366": " r", "367": "her", "368": "if", "369": "ate", "370": "ag", "371": " at", "372": " ha", "373": " W", "374": " se", "375": " H", "376": "ore", "377": " pro", "378": "ul", "379": "pp", "380": "ment", "381": "ri", "382": " are", "383": " D", "384": " 1", "385": "us", "386": "est", "387": "ist", "388": " com", "389": "and", "390": " R", "391": "op", "392": "ain", "393": " The", "394": " 2", "395": "igh", "396": "rom", "397": " (", "398": "ort", "399": "od", "400": " ne", "401": " F", "402": "um", "403": "un", "404": " ex", "405": "res", "406": "ab", "407": "\u00e2\u0080\u009d", "408": " not", "409": " N", "410": " v", "411": "ess", "412": " have", "413": "ity", "414": "em", "415": "ould", "416": " or", "417": "th", "418": " by", "419": "os", "420": "ant", "421": " G", "422": "ive", "423": " from", "424": " al", "425": "el", "426": "'s", "427": "oc", "428": "art", "429": " su", "430": " L", "431": " sh", "432": " this", "433": "nt", "434": "qu", "435": "ight", "436": "pe", "437": "ust", "438": " le", "439": "ies", "440": " E", "441": "end", "442": " ch", "443": " sa", "444": "out", "445": " ab", "446": "The", "447": "all", "448": "ie", "449": "ack", "450": "red", "451": "00", "452": " \u00e2\u0080\u009c", "453": " has", "454": "ally", "455": " J", "456": " pl", "457": " go", "458": "ard", "459": "iv", "460": " his", "461": "ome", "462": "ap", "463": "ost", "464": "gh", "465": "ear", "466": " O", "467": " tr", "468": "our", "469": "ast", "470": " j", "471": "ak", "472": "ud", "473": " do", "474": " they", "475": " but", "476": " wor", "477": "rou", "478": " can", "479": "ge", "480": " will", "481": " said", "482": " whe", "483": " U", "484": " k", "485": "ich", "486": " all", "487": "ok", "488": " \"", "489": "ide", "490": " who", "491": " int", "492": "ame", "493": "ans", "494": "ther", "495": "ial", "496": " out", "497": "ff", "498": " their", "499": "ong", "500": "ect", "501": "pl", "502": "ice", "503": "ure", "504": "pt", "505": "one", "506": " more", "507": "age", "508": "ions", "509": "act", "510": "ike", "511": " me", "512": " up", "513": "ous", "514": "ine", "515": " ad", "516": " about", "517": "ated", "518": "ra", "519": "ber", "520": " one", "521": " were", "522": " so", "523": " us", "524": "ime", "525": "og", "526": " K", "527": "ep", "528": "ia", "529": " had", "530": "are", "531": "ub", "532": "cc", "533": " would", "534": " cl", "535": " 20", "536": " im", "537": " which", "538": "ind", "539": "ue", "540": "ake", "541": " cont", "542": "iz", "543": "very", "544": " ag", "545": " te", "546": " off", "547": " comp", "548": " un", "549": " been", "550": " St", "551": "so", "552": " en", "553": "per", "554": "ign", "555": "au", "556": " Th", "557": "ary", "558": "ace", "559": " year", "560": "ip", "561": "ew", "562": " like", "563": "ere", "564": "ven", "565": "ook", "566": " inc", "567": "ays", "568": " man", "569": " pe", "570": "ry", "571": "ose", "572": " res", "573": "able", "574": "ite", "575": " per", "576": "ass", "577": "ord", "578": " sp", "579": "ire", "580": " In", "581": " other", "582": "mer", "583": " some", "584": "ile", "585": "ib", "586": "ence", "587": "ople", "588": " 201", "589": "ks", "590": "ations", "591": " over", "592": "ical", "593": " there", "594": "ress", "595": " dis", "596": "ult", "597": "int", "598": " new", "599": "own", "600": " also", "601": " than", "602": " ar", "603": " bec", "604": "ru", "605": " them", "606": "ance", "607": "ount", "608": "ough", "609": " app", "610": "port", "611": "ail", "612": " part", "613": " your", "614": " when", "615": "ree", "616": " what", "617": "orm", "618": "ond", "619": " people", "620": "fter", "621": " sc", "622": " Ch", "623": "av", "624": "ase", "625": " qu", "626": " any", "627": " just", "628": " its", "629": " Y", "630": "ach", "631": " time", "632": " It", "633": " kn", "634": " her", "635": " 3", "636": "ens", "637": "lic", "638": " rec", "639": "reat", "640": " my", "641": " get", "642": " if", "643": " V", "644": "ian", "645": ".\u00e2\u0080\u009d", "646": " into", "647": "ound", "648": " work", "649": " tw", "650": "irst", "651": "vel", "652": "ction", "653": " no", "654": "du", "655": "ings", "656": "ory", "657": "ick", "658": "ors", "659": " our", "660": "ition", "661": "ident", "662": "ob", "663": " -", "664": " pre", "665": "ove", "666": " play", "667": "ang", "668": "ink", "669": "ause", "670": "wn", "671": "amp", "672": "te", "673": "ade", "674": "hing", "675": "ates", "676": "ark", "677": " ro", "678": " pol", "679": " she", "680": "vers", "681": " co", "682": ",\u00e2\u0080\u009d", "683": " after", "684": " first", "685": " could", "686": " how", "687": " He", "688": "ne", "689": " 19", "690": "ious", "691": "nder", "692": "ild", "693": " acc", "694": " him", "695": "aw", "696": "'t", "697": "ons", "698": " po", "699": " only", "700": " fe", "701": " att", "702": "ict", "703": "hed", "704": " pr", "705": " two", "706": "rit", "707": "ov", "708": "ish", "709": " comm", "710": "\u00e2\u0080\u009c", "711": "form", "712": " spe", "713": " act", "714": "we", "715": "erv", "716": " bl", "717": "ft", "718": " bet", "719": " dec", "720": ".\"", "721": "ning", "722": " back", "723": " most", "724": "ces", "725": "ood", "726": "ck", "727": " \u00e2\u0080\u0093", "728": " am", "729": "oy", "730": " did", "731": "rough", "732": "iff", "733": "ater", "734": "round", "735": " again", "736": " 4", "737": "ual", "738": "day", "739": "ise", "740": " under", "741": " des", "742": " want", "743": "ull", "744": "sel", "745": " cons", "746": " \u00e2\u0080\u0094", "747": "..", "748": " because", "749": " now", "750": "lud", "751": "ents", "752": " years", "753": "man", "754": "tern", "755": "ublic", "756": "ec", "757": " need", "758": " even", "759": " $", "760": "iss", "761": " inv", "762": " know", "763": " We", "764": " see", "765": "ments", "766": "ced", "767": " add", "768": ",\"", "769": "ting", "770": "old", "771": " ind", "772": " sec", "773": "fore", "774": "uch", "775": " every", "776": "urn", "777": " 5", "778": " supp", "779": " make", "780": "pect", "781": " Un", "782": " em", "783": " these", "784": "ock", "785": "oll", "786": " where", "787": "ject", "788": "In", "789": "ational", "790": "vern", "791": "xt", "792": " bu", "793": " look", "794": "Th", "795": " And", "796": "oss", "797": " don", "798": " ev", "799": "ump", "800": "ating", "801": " way", "802": " being", "803": " rem", "804": " right", "805": "ily", "806": " may", "807": "ng", "808": "row", "809": "lect", "810": "iew", "811": " then", "812": " many", "813": " [", "814": " diff", "815": " def", "816": "ason", "817": " rel", "818": " call", "819": " But", "820": " Tr", "821": "ont", "822": "ied", "823": "les", "824": "ased", "825": " includ", "826": " think", "827": "aking", "828": " reg", "829": ").", "830": "meric", "831": " imp", "832": " through", "833": "ath", "834": "ited", "835": "rib", "836": " sy", "837": " should", "838": " pres", "839": " say", "840": "ell", "841": " fl", "842": "uring", "843": " last", "844": " those", "845": "ower", "846": " very", "847": "ty", "848": "other", "849": " much", "850": "000", "851": "ities", "852": "ific", "853": " state", "854": " This", "855": "ative", "856": " show", "857": "tle", "858": "hen", "859": " br", "860": "ss", "861": "arg", "862": " well", "863": "oth", "864": " ph", "865": " Wh", "866": " count", "867": "als", "868": "und", "869": " does", "870": " down", "871": " own", "872": "arly", "873": " end", "874": " ass", "875": " bel", "876": " use", "877": "ics", "878": "ange", "879": "--", "880": "ts", "881": " long", "882": " Americ", "883": "ters", "884": "ince", "885": " before", "886": "omet", "887": "gr", "888": " mon", "889": "ward", "890": " govern", "891": " start", "892": " report", "893": "ible", "894": " ke", "895": "up", "896": "ues", "897": " New", "898": " fin", "899": " team", "900": "ble", "901": " made", "902": "ife", "903": "olog", "904": "ener", "905": "),", "906": " such", "907": "ren", "908": "com", "909": " 200", "910": "oun", "911": "erson", "912": "ek", "913": "ix", "914": " sm", "915": "\u00e2\u0080\u0094", "916": "lp", "917": "ility", "918": " going", "919": "ism", "920": "ful", "921": " world", "922": "ually", "923": " stud", "924": "ists", "925": " good", "926": " ac", "927": "tain", "928": "It", "929": " sub", "930": " eff", "931": "ini", "932": " sur", "933": " against", "934": "its", "935": " game", "936": " set", "937": "ork", "938": " 6", "939": " gu", "940": " point", "941": " ent", "942": "ys", "943": "gan", "944": "ars", "945": "li", "946": "stem", "947": " prov", "948": " still", "949": "roup", "950": " while", "951": "illion", "952": " help", "953": " lead", "954": "ween", "955": "ef", "956": "ax", "957": "ank", "958": "alk", "959": "imes", "960": " says", "961": " ob", "962": "ms", "963": "cy", "964": " produ", "965": " gr", "966": " inter", "967": " inst", "968": " str", "969": "cess", "970": " sim", "971": "self", "972": " conf", "973": "io", "974": " col", "975": " take", "976": " min", "977": "ures", "978": "arch", "979": " same", "980": " though", "981": " between", "982": "ollow", "983": " offic", "984": "ever", "985": " cr", "986": " differe", "987": "ool", "988": "uss", "989": "ution", "990": "land", "991": " disc", "992": "air", "993": " op", "994": "ah", "995": " ed", "996": " high", "997": "read", "998": " num", "999": " law", "1000": " sign", "1001": "way", "1002": " government", "1003": "gg", "1004": " Re", "1005": "led", "1006": "ner", "1007": "hip", "1008": "atch", "1009": "hes", "1010": "ames", "1011": "any", "1012": " ter", "1013": " somet", "1014": "cent", "1015": "velop", "1016": "ted", "1017": "We", "1018": " ref", "1019": " trans", "1020": "ten", "1021": " ins", "1022": " run", "1023": " ser", "1024": " found", "1025": " three", "1026": "ives", "1027": "ave", "1028": " mem", "1029": " around", "1030": " here", "1031": "ather", "1032": " med", "1033": " real", "1034": " used", "1035": "ouse", "1036": " 10", "1037": "ved", "1038": " exp", "1039": "az", "1040": " Ar", "1041": "cept", "1042": "oot", "1043": " system", "1044": " You", "1045": "ci", "1046": " really", "1047": " mod", "1048": "ving", "1049": "con", "1050": "cer", "1051": " group", "1052": " support", "1053": " 7", "1054": " cour", "1055": "ets", "1056": "ale", "1057": "nin", "1058": "ins", "1059": " ret", "1060": " hand", "1061": " public", "1062": " spec", "1063": "pr", "1064": " Le", "1065": "ying", "1066": " great", "1067": " car", "1068": "ense", "1069": " ext", "1070": ".[", "1071": "ton", "1072": "irect", "1073": " cur", "1074": " fam", "1075": " Com", "1076": "alth", "1077": " happ", "1078": " fact", "1079": "ph", "1080": " exper", "1081": " They", "1082": " Trump", "1083": " fr", "1084": " wom", "1085": " Is", "1086": " cap", "1087": " both", "1088": " day", "1089": " find", "1090": " Al", "1091": "ular", "1092": " read", "1093": "ines", "1094": "oh", "1095": "ices", "1096": " det", "1097": " lit", "1098": " sl", "1099": " rep", "1100": "uth", "1101": "ered", "1102": " during", "1103": " Sh", "1104": " As", "1105": " 0", "1106": " serv", "1107": " month", "1108": "the", "1109": "ision", "1110": " cre", "1111": " develop", "1112": " big", "1113": "min", "1114": " 8", "1115": " person", "1116": "akes", "1117": " follow", "1118": " Cl", "1119": " iss", "1120": "ex", "1121": " told", "1122": " since", "1123": "ared", "1124": "med", "1125": "ically", "1126": " week", "1127": "ages", "1128": "ivers", "1129": " war", "1130": " few", "1131": "orth", "1132": "ording", "1133": " cent", "1134": " leg", "1135": "aj", "1136": "get", "1137": " polit", "1138": "ves", "1139": "ash", "1140": " expl", "1141": " lot", "1142": "ric", "1143": " Se", "1144": " belie", "1145": "ata", "1146": " gener", "1147": " too", "1148": " 9", "1149": "der", "1150": "rent", "1151": " opp", "1152": "Wh", "1153": " requ", "1154": " contin", "1155": " prot", "1156": "iet", "1157": "bers", "1158": "anc", "1159": " fil", "1160": "ention", "1161": "ness", "1162": " cle", "1163": " resp", "1164": " put", "1165": "ized", "1166": " If", "1167": " another", "1168": "20", "1169": "chool", "1170": " inf", "1171": " something", "1172": " De", "1173": " different", "1174": " cor", "1175": " loc", "1176": "ute", "1177": " invest", "1178": " soc", "1179": " power", "1180": " che", "1181": "uc", "1182": " '", "1183": " pass", "1184": " commun", "1185": " life", "1186": " Fr", "1187": " plan", "1188": "ody", "1189": " rele", "1190": " head", "1191": "ience", "1192": " things", "1193": "ned", "1194": " far", "1195": " art", "1196": " poss", "1197": " met", "1198": "thing", "1199": "ox", "1200": "erest", "1201": " camp", "1202": "ross", "1203": "arge", "1204": " vot", "1205": "This", "1206": "view", "1207": "ier", "1208": " child", "1209": "ants", "1210": " ask", "1211": " .", "1212": " might", "1213": " each", "1214": "ize", "1215": "iness", "1216": " dep", "1217": " never", "1218": " next", "1219": "ield", "1220": " second", "1221": " mark", "1222": "tt", "1223": " quest", "1224": " bus", "1225": " adv", "1226": "ik", "1227": " An", "1228": "...", "1229": " dem", "1230": " For", "1231": " come", "1232": " got", "1233": " \u00e2\u0080\u0098", "1234": " open", "1235": " best", "1236": "ient", "1237": "ital", "1238": " allow", "1239": " That", "1240": "rat", "1241": " seem", "1242": " post", "1243": "ple", "1244": "nce", "1245": " feel", "1246": " Pro", "1247": " US", "1248": "ug", "1249": " pri", "1250": "gram", "1251": " percent", "1252": "cl", "1253": " home", "1254": " dist", "1255": " direct", "1256": "ired", "1257": " incre", "1258": " contro", "1259": " Rep", "1260": "son", "1261": "orn", "1262": "less", "1263": "osed", "1264": " result", "1265": " hard", "1266": " care", "1267": "ately", "1268": " million", "1269": "chn", "1270": " comple", "1271": " place", "1272": " without", "1273": " inform", "1274": " including", "1275": " import", "1276": " av", "1277": "conom", "1278": " hum", "1279": "ama", "1280": " ide", "1281": " proble", "1282": " build", "1283": " top", "1284": " number", "1285": " country", "1286": "gy", "1287": "oney", "1288": "aim", "1289": " Bl", "1290": "ret", "1291": "ral", "1292": "ably", "1293": "uro", "1294": " stand", "1295": " gl", "1296": " el", "1297": "riend", "1298": " four", "1299": "ished", "1300": "ways", "1301": " partic", "1302": " better", "1303": " tri", "1304": "But", "1305": " recent", "1306": " interest", "1307": " mov", "1308": " let", "1309": "co", "1310": "ration", "1311": " season", "1312": " less", "1313": "ead", "1314": " turn", "1315": " little", "1316": " beh", "1317": " mil", "1318": " appro", "1319": "ract", "1320": "line", "1321": " bro", "1322": "ling", "1323": "ised", "1324": " called", "1325": "app", "1326": "10", "1327": " case", "1328": " dr", "1329": " Ind", "1330": " rest", "1331": " left", "1332": " pop", "1333": " ann", "1334": " Z", "1335": "ency", "1336": "ode", "1337": " move", "1338": " attack", "1339": "ina", "1340": " There", "1341": " keep", "1342": " full", "1343": "ering", "1344": " didn", "1345": "be", "1346": " fun", "1347": " main", "1348": "ajor", "1349": "__", "1350": " effect", "1351": "inal", "1352": "leg", "1353": " prev", "1354": " program", "1355": " using", "1356": " test", "1357": "rem", "1358": " pay", "1359": "ature", "1360": " ear", "1361": "to", "1362": " val", "1363": " police", "1364": " writ", "1365": " form", "1366": " econom", "1367": " data", "1368": " news", "1369": " pos", "1370": " win", "1371": " American", "1372": " level", "1373": " sit", "1374": " char", "1375": "ains", "1376": "iving", "1377": "uck", "1378": " small", "1379": "ined", "1380": "ready", "1381": "He", "1382": " school", "1383": " list", "1384": "ology", "1385": "rap", "1386": "ided", "1387": "mit", "1388": "ploy", "1389": "'re", "1390": "ger", "1391": " eas", "1392": " process", "1393": "ird", "1394": " change", "1395": " women", "1396": " current", "1397": " rece", "1398": " prom", "1399": " hist", "1400": " dri", "1401": " =", "1402": "reen", "1403": " president", "1404": " company", "1405": " So", "1406": "used", "1407": " mat", "1408": "ruct", "1409": " already", "1410": "ohn", "1411": " United", "1412": "wit", "1413": " ty", "1414": " why", "1415": " bre", "1416": " unt", "1417": " money", "1418": " sol", "1419": " always", "1420": " later", "1421": " expect", "1422": " techn", "1423": " business", "1424": " How", "1425": " official", "1426": "ron", "1427": " Q", "1428": " Ob", "1429": "stand", "1430": "iversity", "1431": " bo", "1432": " book", "1433": " Ph", "1434": "aign", "1435": " thing", "1436": " class", "1437": " project", "1438": "ases", "1439": " claim", "1440": " job", "1441": " information", "1442": " organ", "1443": "aff", "1444": " She", "1445": "ards", "1446": " talk", "1447": " Be", "1448": " design", "1449": " story", "1450": " chang", "1451": " major", "1452": " able", "1453": " prof", "1454": " --", "1455": "lection", "1456": "iven", "1457": "ertain", "1458": " rese", "1459": " health", "1460": " vis", "1461": " past", "1462": "urs", "1463": " free", "1464": "outh", "1465": "here", "1466": " Ad", "1467": " oper", "1468": "ption", "1469": " away", "1470": "ior", "1471": " Can", "1472": " must", "1473": " city", "1474": "ample", "1475": "ians", "1476": "rist", "1477": "sc", "1478": "ural", "1479": " happen", "1480": "uthor", "1481": " 18", "1482": " important", "1483": "acy", "1484": "urity", "1485": " kill", "1486": " sk", "1487": " est", "1488": "ured", "1489": " old", "1490": " pat", "1491": "ury", "1492": "ending", "1493": " doesn", "1494": "ission", "1495": " least", "1496": "---", "1497": " grow", "1498": " edit", "1499": " var", "1500": "ained", "1501": "St", "1502": " cost", "1503": " Go", "1504": "ney", "1505": "ider", "1506": "ides", "1507": "els", "1508": " days", "1509": " tell", "1510": " hop", "1511": " stre", "1512": " campaign", "1513": "side", "1514": " 12", "1515": " men", "1516": " came", "1517": " aff", "1518": " const", "1519": "resident", "1520": " enough", "1521": " view", "1522": "ccess", "1523": " kind", "1524": " Mar", "1525": "oad", "1526": " Sp", "1527": "ern", "1528": " making", "1529": " large", "1530": " record", "1531": "50", "1532": "ush", "1533": " friend", "1534": " mar", "1535": " family", "1536": "\u00e2\u0080\u00a6", "1537": "ley", "1538": " elect", "1539": "ded", "1540": "eral", "1541": " polic", "1542": " tax", "1543": "ising", "1544": "ror", "1545": "by", "1546": "pped", "1547": "ality", "1548": "ator", "1549": "ified", "1550": "As", "1551": "ived", "1552": "arent", "1553": " until", "1554": "ee", "1555": "ional", "1556": " political", "1557": " vide", "1558": " deal", "1559": "ries", "1560": "alf", "1561": "augh", "1562": " ve", "1563": " working", "1564": "ued", "1565": " Republic", "1566": " took", "1567": " deb", "1568": "bs", "1569": "If", "1570": "ister", "1571": " line", "1572": " John", "1573": "aining", "1574": " air", "1575": "---", "1576": " es", "1577": " intern", "1578": " fore", "1579": "iol", "1580": "ane", "1581": "ocrat", "1582": " become", "1583": " actually", "1584": "aps", "1585": "ony", "1586": " mean", "1587": "work", "1588": " fund", "1589": " Sc", "1590": "ware", "1591": "19", "1592": "ember", "1593": " Pl", "1594": " former", "1595": " often", "1596": " Euro", "1597": "ott", "1598": " won", "1599": " give", "1600": "ann", "1601": "oint", "1602": " according", "1603": " ever", "1604": "most", "1605": "eng", "1606": "year", "1607": "wh", "1608": "aring", "1609": " games", "1610": "ison", "1611": " human", "1612": " bas", "1613": "ization", "1614": " return", "1615": " times", "1616": " order", "1617": " Russ", "1618": " word", "1619": " bit", "1620": " Dem", "1621": " name", "1622": "11", "1623": " sever", "1624": " All", "1625": " dev", "1626": "icle", "1627": "uture", "1628": "for", "1629": "ither", "1630": " par", "1631": " 199", "1632": " Mc", "1633": " wr", "1634": " Con", "1635": "raft", "1636": " sing", "1637": " perform", "1638": " Sy", "1639": " market", "1640": " fac", "1641": " charac", "1642": "There", "1643": "iqu", "1644": " Or", "1645": "idd", "1646": " At", "1647": " May", "1648": " ra", "1649": " doing", "1650": " appear", "1651": "ER", "1652": "ched", "1653": " players", "1654": " la", "1655": " night", "1656": "ene", "1657": " lear", "1658": "aken", "1659": "rop", "1660": "ats", "1661": "mber", "1662": " today", "1663": " early", "1664": " 15", "1665": " seen", "1666": "//", "1667": " having", "1668": " ,", "1669": " pot", "1670": " children", "1671": " event", "1672": " media", "1673": " social", "1674": " crit", "1675": " President", "1676": " whether", "1677": " several", "1678": " control", "1679": "idence", "1680": " meet", "1681": "sh", "1682": " milit", "1683": " press", "1684": " went", "1685": "artment", "1686": " five", "1687": " young", "1688": "ories", "1689": " sure", "1690": " prop", "1691": "iously", "1692": " equ", "1693": " beg", "1694": " question", "1695": " occ", "1696": " likely", "1697": "vert", "1698": "une", "1699": " members", "1700": "br", "1701": "ands", "1702": " certain", "1703": " eng", "1704": " water", "1705": " York", "1706": " example", "1707": "ots", "1708": " Col", "1709": " arg", "1710": " side", "1711": " ant", "1712": " done", "1713": " vers", "1714": "enn", "1715": " invol", "1716": " Mr", "1717": " States", "1718": " Europe", "1719": "ended", "1720": "let", "1721": " along", "1722": " short", "1723": " success", "1724": "ential", "1725": " months", "1726": "ball", "1727": " hour", "1728": " 11", "1729": "ium", "1730": " sex", "1731": "iver", "1732": "ially", "1733": "And", "1734": "lf", "1735": "empt", "1736": " within", "1737": " desc", "1738": "imate", "1739": " course", "1740": " fight", "1741": "ster", "1742": "urch", "1743": "ubl", "1744": " among", "1745": " activ", "1746": "uff", "1747": "\u00e2\u0080\u0093", "1748": "ague", "1749": " once", "1750": " future", "1751": " investig", "1752": "ulation", "1753": "rew", "1754": " possible", "1755": " Obama", "1756": " cho", "1757": "nect", "1758": " understand", "1759": "iting", "1760": " concer", "1761": " On", "1762": " ]", "1763": "ones", "1764": "ortun", "1765": " problem", "1766": " Br", "1767": " priv", "1768": " means", "1769": " viol", "1770": " Car", "1771": " author", "1772": "itive", "1773": " No", "1774": "ggest", "1775": " avail", "1776": "oci", "1777": "ourn", "1778": "my", "1779": " known", "1780": " product", "1781": " non", "1782": "ivid", "1783": " thought", "1784": " yet", "1785": "gress", "1786": " across", "1787": " protect", "1788": " local", "1789": "ler", "1790": " hold", "1791": " Te", "1792": " fail", "1793": "inc", "1794": " When", "1795": " State", "1796": " community", "1797": " reason", "1798": " orig", "1799": "ede", "1800": " suggest", "1801": " &", "1802": "12", "1803": " makes", "1804": "verage", "1805": "ald", "1806": "not", "1807": "por", "1808": "back", "1809": " 2016", "1810": " i", "1811": "book", "1812": " asked", "1813": "ederal", "1814": "orld", "1815": " reported", "1816": "You", "1817": "aged", "1818": "ensive", "1819": " given", "1820": " strong", "1821": " prob", "1822": " mus", "1823": " others", "1824": " believe", "1825": " video", "1826": "iber", "1827": " ben", "1828": " getting", "1829": " House", "1830": "ances", "1831": " announ", "1832": " light", "1833": "ging", "1834": "ored", "1835": "ober", "1836": " University", "1837": " 30", "1838": " Co", "1839": "itions", "1840": " ident", "1841": "iron", "1842": " sent", "1843": " cut", "1844": " lim", "1845": " ca", "1846": " Christ", "1847": "iety", "1848": "30", "1849": "urther", "1850": " sour", "1851": " creat", "1852": " cond", "1853": " X", "1854": "rest", "1855": "ams", "1856": "'ve", "1857": " net", "1858": "ashing", "1859": " bat", "1860": "ament", "1861": " national", "1862": ".,", "1863": " close", "1864": "arm", "1865": " started", "1866": " saf", "1867": " death", "1868": "aster", "1869": " available", "1870": " hig", "1871": "For", "1872": " based", "1873": " issue", "1874": "of", "1875": " indust", "1876": " Democrat", "1877": " low", "1878": " following", "1879": "resent", "1880": " account", "1881": " land", "1882": "use", "1883": " Cent", "1884": " employ", "1885": " love", "1886": " 2015", "1887": " #", "1888": " history", "1889": " ago", "1890": "orts", "1891": "selves", "1892": " mom", "1893": "ana", "1894": " party", "1895": " Am", "1896": "ability", "1897": "eb", "1898": " series", "1899": " comes", "1900": " trying", "1901": "uly", "1902": "utes", "1903": " almost", "1904": "gether", "1905": "ument", "1906": " together", "1907": "ination", "1908": "AT", "1909": " America", "1910": " idea", "1911": "pro", "1912": "ief", "1913": " access", "1914": " foc", "1915": "hers", "1916": "ilar", "1917": " Fl", "1918": "reed", "1919": "ails", "1920": " commit", "1921": "itional", "1922": " isn", "1923": " Sen", "1924": " clear", "1925": " 16", "1926": " One", "1927": " trad", "1928": " Min", "1929": "though", "1930": "ring", "1931": " What", "1932": " pract", "1933": " added", "1934": " impro", "1935": " experience", "1936": "erence", "1937": " film", "1938": "15", "1939": " half", "1940": "ustom", "1941": "ged", "1942": " hit", "1943": " Bro", "1944": "witter", "1945": "rict", "1946": " anal", "1947": "inton", "1948": "ograp", "1949": "unch", "1950": " 2014", "1951": " rul", "1952": "ividual", "1953": " looking", "1954": " six", "1955": " live", "1956": " anything", "1957": " area", "1958": " complete", "1959": "erman", "1960": "minist", "1961": " miss", "1962": "rael", "1963": " Comm", "1964": " Ex", "1965": " fav", "1966": " ris", "1967": "nes", "1968": " present", "1969": "ai", "1970": "ote", "1971": "rug", "1972": " saying", "1973": "raw", "1974": "aid", "1975": " Canad", "1976": " vict", "1977": "IN", "1978": "cially", "1979": " bad", "1980": "ows", "1981": "uge", "1982": " taken", "1983": "oto", "1984": " entire", "1985": " Pr", "1986": "ators", "1987": " bill", "1988": " compet", "1989": "af", "1990": " mor", "1991": " Eng", "1992": " behind", "1993": "ien", "1994": " aut", "1995": " To", "1996": "'m", "1997": " court", "1998": "play", "1999": " try", "2000": "ev", "2001": " military", "2002": " z", "2003": " near", "2004": "osp", "2005": " mult", "2006": "What", "2007": " face", "2008": "wards", "2009": " er", "2010": " 14", "2011": " security", "2012": " Pol", "2013": "sy", "2014": " proper", "2015": " discuss", "2016": " threat", "2017": " tot", "2018": "ert", "2019": " study", "2020": " single", "2021": " rather", "2022": " individual", "2023": " Af", "2024": " Brit", "2025": " War", "2026": " \u00c2", "2027": "ttp", "2028": " quick", "2029": " Don", "2030": " mind", "2031": " Sec", "2032": "lement", "2033": "ales", "2034": "atic", "2035": "An", "2036": " North", "2037": "amed", "2038": "aper", "2039": " publ", "2040": " policy", "2041": " mess", "2042": "ris", "2043": "par", "2044": " black", "2045": " wanted", "2046": " fall", "2047": "irc", "2048": "**", "2049": "off", "2050": " food", "2051": " sum", "2052": " someone", "2053": "lling", "2054": "ids", "2055": "On", "2056": " |", "2057": " /", "2058": " cult", "2059": " special", "2060": " comb", "2061": " key", "2062": " player", "2063": " redu", "2064": " Gr", "2065": " bring", "2066": " 13", "2067": " compan", "2068": " 17", "2069": "ply", "2070": " Dep", "2071": " attempt", "2072": " National", "2073": " taking", "2074": " Bar", "2075": "When", "2076": "ON", "2077": "ify", "2078": "olution", "2079": " :", "2080": "viron", "2081": " foot", "2082": " Cal", "2083": "://", "2084": " else", "2085": " pret", "2086": " body", "2087": " space", "2088": "elt", "2089": "rote", "2090": "over", "2091": " probably", "2092": "16", "2093": "icult", "2094": ".)", "2095": " front", "2096": " cou", "2097": " nothing", "2098": " Im", "2099": " sw", "2100": "ashington", "2101": " connect", "2102": "ches", "2103": " World", "2104": " research", "2105": "14", "2106": " Clinton", "2107": " City", "2108": "ming", "2109": " coming", "2110": " points", "2111": " Israel", "2112": " however", "2113": "RE", "2114": " describ", "2115": " jo", "2116": "go", "2117": " signific", "2118": " similar", "2119": "yn", "2120": "reme", "2121": "cing", "2122": " benef", "2123": "lier", "2124": " Man", "2125": " Aust", "2126": " imm", "2127": " decision", "2128": " either", "2129": "aces", "2130": "Ad", "2131": " coun", "2132": "ault", "2133": "So", "2134": " mass", "2135": " Har", "2136": " sus", "2137": " targ", "2138": "ully", "2139": " feat", "2140": "That", "2141": " conv", "2142": " exist", "2143": "irl", "2144": " enc", "2145": " 2013", "2146": " rights", "2147": " service", "2148": " Su", "2149": "asing", "2150": "sw", "2151": "IS", "2152": " fire", "2153": " doc", "2154": " wrote", "2155": " further", "2156": " house", "2157": "rodu", "2158": " fig", "2159": " chall", "2160": " ban", "2161": "ww", "2162": " third", "2163": "mb", "2164": " wa", "2165": " create", "2166": " stop", "2167": " field", "2168": "now", "2169": " pick", "2170": "AN", "2171": "ape", "2172": "ively", "2173": " meas", "2174": " repl", "2175": " compl", "2176": "ung", "2177": " With", "2178": " issues", "2179": "pping", "2180": " begin", "2181": " super", "2182": "amer", "2183": " step", "2184": "eal", "2185": "ried", "2186": "ently", "2187": " whole", "2188": " relations", "2189": " seems", "2190": " )", "2191": " companies", "2192": "pecially", "2193": " due", "2194": " exec", "2195": " cand", "2196": " everything", "2197": " federal", "2198": " Ed", "2199": " Gu", "2200": " states", "2201": " ey", "2202": " room", "2203": "aul", "2204": " tra", "2205": " watch", "2206": "oon", "2207": " Ge", "2208": " custom", "2209": " leaders", "2210": "13", "2211": "uation", "2212": " However", "2213": "pite", "2214": " Jan", "2215": " Washington", "2216": "Ch", "2217": "lam", "2218": " self", "2219": " role", "2220": "ran", "2221": "ilt", "2222": " sound", "2223": " lab", "2224": "att", "2225": "head", "2226": " dam", "2227": "ivil", "2228": " officials", "2229": " stri", "2230": " 2012", "2231": " tre", "2232": "iday", "2233": "ibility", "2234": " released", "2235": "lu", "2236": " Inst", "2237": " began", "2238": " Dav", "2239": " App", "2240": " South", "2241": " opt", "2242": "obal", "2243": " students", "2244": " treat", "2245": " final", "2246": " character", "2247": " position", "2248": " matter", "2249": "\u00c3\u00a9", "2250": "ender", "2251": " ener", "2252": "lim", "2253": " outside", "2254": "ery", "2255": "sec", "2256": "ades", "2257": " dou", "2258": "vironment", "2259": " development", "2260": " statement", "2261": " himself", "2262": " 2017", "2263": " above", "2264": "like", "2265": " stat", "2266": " init", "2267": " break", "2268": " 100", "2269": " amount", "2270": " provide", "2271": " hours", "2272": " itself", "2273": " themselves", "2274": " office", "2275": " represent", "2276": " action", "2277": " Part", "2278": " di", "2279": " became", "2280": " 198", "2281": " general", "2282": " continue", "2283": " countries", "2284": " Intern", "2285": " neg", "2286": " address", "2287": "iod", "2288": " 25", "2289": " gun", "2290": "aced", "2291": "ask", "2292": " true", "2293": " specific", "2294": "ograph", "2295": "umb", "2296": "arter", "2297": "reg", "2298": " larg", "2299": " significant", "2300": "lish", "2301": " simply", "2302": " Ass", "2303": " Res", "2304": " wasn", "2305": "'ll", "2306": "ili", "2307": " interview", "2308": "acebook", "2309": " ground", "2310": " rad", "2311": "oid", "2312": "ogn", "2313": " difficult", "2314": " running", "2315": " Just", "2316": " evidence", "2317": " administ", "2318": "BC", "2319": " cop", "2320": "17", "2321": "ream", "2322": " drug", "2323": " version", "2324": "ogle", "2325": " bar", "2326": " agree", "2327": "iddle", "2328": "eks", "2329": " building", "2330": " China", "2331": " needs", "2332": " profess", "2333": "angu", "2334": " groups", "2335": "right", "2336": " typ", "2337": " respons", "2338": " common", "2339": " shows", "2340": " everyone", "2341": " dom", "2342": " dest", "2343": " red", "2344": " needed", "2345": " ball", "2346": " woman", "2347": "___", "2348": " German", "2349": " lat", "2350": " below", "2351": " tem", "2352": "light", "2353": "ournal", "2354": " music", "2355": " exc", "2356": " release", "2357": "ift", "2358": " inj", "2359": " pretty", "2360": " Ab", "2361": "AR", "2362": "ribut", "2363": " Med", "2364": " include", "2365": " saw", "2366": " deep", "2367": " ap", "2368": "body", "2369": "18", "2370": " played", "2371": " quite", "2372": " industry", "2373": " charg", "2374": " mag", "2375": " energy", "2376": " playing", "2377": " mot", "2378": " 50", "2379": " candid", "2380": " sense", "2381": " phys", "2382": " late", "2383": " alleg", "2384": " white", "2385": " His", "2386": "eg", "2387": "ival", "2388": " friends", "2389": " gen", "2390": " legal", "2391": "atur", "2392": "bo", "2393": " anim", "2394": "isc", "2395": "yle", "2396": " After", "2397": "omm", "2398": "How", "2399": "AS", "2400": "where", "2401": " abs", "2402": "lev", "2403": " instead", "2404": " billion", "2405": " lost", "2406": " especially", "2407": " value", "2408": " Mus", "2409": " West", "2410": " host", "2411": "osing", "2412": "oring", "2413": " hom", "2414": " News", "2415": "time", "2416": "ager", "2417": " ple", "2418": "istic", "2419": " weeks", "2420": "epend", "2421": " Not", "2422": "ccording", "2423": " forward", "2424": " deter", "2425": " election", "2426": " recently", "2427": " jud", "2428": " track", "2429": " suff", "2430": " vote", "2431": " Twitter", "2432": " object", "2433": "irt", "2434": "lt", "2435": "medi", "2436": " period", "2437": " changes", "2438": " opportun", "2439": " White", "2440": " Oct", "2441": " lo", "2442": " longer", "2443": "arc", "2444": "eed", "2445": "oke", "2446": " ep", "2447": " pain", "2448": "ique", "2449": " soon", "2450": " site", "2451": " {", "2452": "hod", "2453": "ript", "2454": "ached", "2455": " accept", "2456": " Cong", "2457": "___", "2458": "irm", "2459": " shoot", "2460": " economic", "2461": " hope", "2462": " moment", "2463": " decl", "2464": "lege", "2465": " consum", "2466": " Will", "2467": " pie", "2468": " tit", "2469": " check", "2470": "oph", "2471": "oe", "2472": " potential", "2473": " block", "2474": " March", "2475": "ole", "2476": " wrong", "2477": "duct", "2478": "ners", "2479": "ij", "2480": " Sept", "2481": "den", "2482": " Department", "2483": " higher", "2484": "onse", "2485": " cred", "2486": " online", "2487": " focus", "2488": " 24", "2489": " consider", "2490": "key", "2491": " educ", "2492": "ancial", "2493": " My", "2494": "ns", "2495": "iding", "2496": " circ", "2497": " works", "2498": " relig", "2499": " share", "2500": " parent", "2501": "cial", "2502": " held", "2503": "25", "2504": " pred", "2505": " Dr", "2506": " walk", "2507": " webs", "2508": "ularly", "2509": "==", "2510": " reve", "2511": " led", "2512": "lear", "2513": " stay", "2514": " These", "2515": "overed", "2516": " stru", "2517": "alt", "2518": " Republican", "2519": " risk", "2520": " words", "2521": " Aug", "2522": " rev", "2523": " sold", "2524": " review", "2525": "icro", "2526": " contract", "2527": " results", "2528": " services", "2529": " laws", "2530": "They", "2531": " code", "2532": "cil", "2533": " Mich", "2534": " wind", "2535": " function", "2536": " aud", "2537": " ce", "2538": " Syri", "2539": "put", "2540": "aut", "2541": " total", "2542": "fect", "2543": " article", "2544": " age", "2545": " applic", "2546": " minutes", "2547": " personal", "2548": "ilities", "2549": " anyone", "2550": "uary", "2551": "ients", "2552": "itution", "2553": "asons", "2554": " June", "2555": "ateg", "2556": " prim", "2557": "anger", "2558": " target", "2559": "fer", "2560": " den", "2561": " earlier", "2562": "ule", "2563": " favor", "2564": " express", "2565": "haps", "2566": " dead", "2567": " answ", "2568": " upd", "2569": "ech", "2570": " popular", "2571": "che", "2572": " comput", "2573": " Ste", "2574": " vol", "2575": "pril", "2576": " necess", "2577": "ham", "2578": " hy", "2579": " rate", "2580": "ES", "2581": "aging", "2582": " technology", "2583": "apan", "2584": " respect", "2585": "val", "2586": " environment", "2587": " 2011", "2588": "Ph", "2589": " received", "2590": " expected", "2591": " Sm", "2592": "ends", "2593": "ude", "2594": " goal", "2595": " created", "2596": " base", "2597": " surpr", "2598": " anti", "2599": " Par", "2600": " July", "2601": "eter", "2602": "tee", "2603": " problems", "2604": "uel", "2605": " ways", "2606": " port", "2607": "iple", "2608": "action", "2609": " private", "2610": " Do", "2611": " scient", "2612": " increase", "2613": "ray", "2614": "reet", "2615": " announced", "2616": " comment", "2617": "isl", "2618": " cannot", "2619": " easy", "2620": "Al", "2621": " shot", "2622": " Congress", "2623": " questions", "2624": "bit", "2625": " force", "2626": " Pe", "2627": "aterial", "2628": " impact", "2629": "hern", "2630": " et", "2631": " Mond", "2632": "ples", "2633": " pack", "2634": " +", "2635": " pur", "2636": " Facebook", "2637": " langu", "2638": "atives", "2639": " God", "2640": " En", "2641": " involved", "2642": "omb", "2643": "aving", "2644": "ills", "2645": "60", "2646": "lex", "2647": "hood", "2648": "onst", "2649": " Austral", "2650": " div", "2651": "uesday", "2652": " execut", "2653": "ctor", "2654": " model", "2655": "itiz", "2656": " sen", "2657": " speak", "2658": " staff", "2659": " exact", "2660": " civil", "2661": "ees", "2662": "ires", "2663": " nearly", "2664": " type", "2665": "ourt", "2666": "okes", "2667": " original", "2668": " cases", "2669": " content", "2670": " 197", "2671": " relationship", "2672": " terror", "2673": " Google", "2674": "To", "2675": " leave", "2676": " Friday", "2677": " response", "2678": " capt", "2679": " inside", "2680": " <", "2681": " phot", "2682": "lled", "2683": " fans", "2684": " April", "2685": " international", "2686": " coll", "2687": "cast", "2688": " heart", "2689": " average", "2690": " broad", "2691": " arrest", "2692": " users", "2693": " Count", "2694": " cal", "2695": "At", "2696": "rel", "2697": " cell", "2698": " worth", "2699": " Em", "2700": " soft", "2701": " ur", "2702": " living", "2703": "bor", "2704": " Red", "2705": " nation", "2706": "ips", "2707": "ky", "2708": " killed", "2709": " reports", "2710": " 2010", "2711": "\u00e3\u0081", "2712": " becom", "2713": " source", "2714": " Monday", "2715": " Tuesday", "2716": " subject", "2717": " worked", "2718": "atural", "2719": "ests", "2720": " estab", "2721": " immedi", "2722": "EN", "2723": " respond", "2724": " global", "2725": " associ", "2726": "joy", "2727": "ellig", "2728": " club", "2729": "ops", "2730": " Americans", "2731": "ael", "2732": " obs", "2733": "ites", "2734": " Per", "2735": " Pal", "2736": " chance", "2737": " oil", "2738": " Act", "2739": " ability", "2740": " takes", "2741": "rought", "2742": " weap", "2743": "hel", "2744": " price", "2745": " Japan", "2746": "ological", "2747": " director", "2748": "izing", "2749": " workers", "2750": " terms", "2751": " road", "2752": "mon", "2753": " published", "2754": " del", "2755": "ext", "2756": " While", "2757": " tou", "2758": " phone", "2759": "rain", "2760": " collect", "2761": " financial", "2762": " mid", "2763": "osition", "2764": " decided", "2765": "ises", "2766": "OR", "2767": " Russia", "2768": " Some", "2769": " mother", "2770": " squ", "2771": " Wed", "2772": " lack", "2773": " defin", "2774": "ovember", "2775": " 40", "2776": " girl", "2777": " store", "2778": " gave", "2779": " buy", "2780": " influ", "2781": " Calif", "2782": " log", "2783": " happened", "2784": " require", "2785": " Now", "2786": " emer", "2787": "ino", "2788": " fem", "2789": "\".", "2790": "ese", "2791": " capital", "2792": "clus", "2793": " foreign", "2794": " currently", "2795": " Off", "2796": "based", "2797": " San", "2798": " goes", "2799": " By", "2800": "oved", "2801": " Geor", "2802": "vertise", "2803": " situation", "2804": " indic", "2805": " offer", "2806": " whose", "2807": " @", "2808": " tal", "2809": " material", "2810": " lives", "2811": "unt", "2812": " affect", "2813": "rown", "2814": "ought", "2815": "hem", "2816": " plans", "2817": "nesday", "2818": " arri", "2819": " bur", "2820": " member", "2821": " pict", "2822": "ursday", "2823": " Feb", "2824": " particip", "2825": "ruction", "2826": " recogn", "2827": " turned", "2828": " method", "2829": " events", "2830": " January", "2831": " Hill", "2832": " network", "2833": "One", "2834": " teams", "2835": " Sund", "2836": " bank", "2837": " meeting", "2838": "40", "2839": "rect", "2840": " norm", "2841": " introdu", "2842": " simple", "2843": "fully", "2844": " Ag", "2845": " Islam", "2846": " ill", "2847": " huge", "2848": " September", "2849": " regard", "2850": " areas", "2851": " cy", "2852": "order", "2853": " Cor", "2854": " TV", "2855": " Me", "2856": "bl", "2857": " couple", "2858": " approach", "2859": "aur", "2860": " career", "2861": " Afric", "2862": " Gl", "2863": "load", "2864": "\",", "2865": " deli", "2866": "oud", "2867": " race", "2868": " performance", "2869": " page", "2870": "ety", "2871": "apt", "2872": " November", "2873": " tool", "2874": " David", "2875": " felt", "2876": " quickly", "2877": " mis", "2878": " numbers", "2879": "oor", "2880": " email", "2881": " El", "2882": " 21", "2883": "aily", "2884": " ord", "2885": "istan", "2886": " administration", "2887": " hon", "2888": " Wednesday", "2889": " victim", "2890": " Paul", "2891": " via", "2892": " improve", "2893": " engine", "2894": "chie", "2895": " fre", "2896": " pull", "2897": " Ang", "2898": " round", "2899": " built", "2900": " 22", "2901": " pers", "2902": " European", "2903": " dig", "2904": " Thursday", "2905": " father", "2906": "ornia", "2907": " loss", "2908": "avy", "2909": " thous", "2910": "\u00c2\u00ad", "2911": " http", "2912": "ructure", "2913": " production", "2914": " boy", "2915": "ume", "2916": "lin", "2917": " heard", "2918": "down", "2919": "Sh", "2920": " economy", "2921": "\u00e2\u0080\u009d.", "2922": " enjoy", "2923": " August", "2924": " trade", "2925": " Sch", "2926": "face", "2927": " website", "2928": "iment", "2929": " secret", "2930": " cover", "2931": " reveal", "2932": " wide", "2933": " board", "2934": " match", "2935": " Court", "2936": "AL", "2937": " allowed", "2938": " hands", "2939": " spent", "2940": " travel", "2941": " lower", "2942": " repe", "2943": "atory", "2944": " poll", "2945": " included", "2946": "cember", "2947": " ste", "2948": " October", "2949": " neigh", "2950": " legisl", "2951": "orters", "2952": "uses", "2953": " behav", "2954": "iction", "2955": " knew", "2956": " text", "2957": " wants", "2958": " town", "2959": "ights", "2960": " British", "2961": " separ", "2962": "ences", "2963": "estern", "2964": " visit", "2965": " Canada", "2966": "anks", "2967": "ctions", "2968": "With", "2969": " perfect", "2970": " gets", "2971": "ession", "2972": " movement", "2973": " aren", "2974": "ishing", "2975": "raz", "2976": "ground", "2977": "agement", "2978": " tried", "2979": " cause", "2980": "?\u00e2\u0080\u009d", "2981": "gest", "2982": " }", "2983": " forces", "2984": " Sunday", "2985": " ens", "2986": "After", "2987": "force", "2988": "ceed", "2989": " attention", "2990": " particular", "2991": " bi", "2992": "urd", "2993": "][", "2994": " veh", "2995": " bud", "2996": " fear", "2997": " population", "2998": "ened", "2999": " various", "3000": " UK", "3001": " reach", "3002": " looks", "3003": " 23", "3004": " California", "3005": " brought", "3006": " vo", "3007": " Kore", "3008": " link", "3009": "ibly", "3010": ");", "3011": "arily", "3012": " IS", "3013": "200", "3014": " previous", "3015": "ED", "3016": " mention", "3017": " Russian", "3018": " morning", "3019": " Qu", "3020": "cle", "3021": "idered", "3022": "'d", "3023": " fair", "3024": " growth", "3025": "aker", "3026": " Sw", "3027": "undred", "3028": "99", "3029": "sequ", "3030": "yond", "3031": " progress", "3032": " fell", "3033": "alled", "3034": " song", "3035": "iam", "3036": "ening", "3037": " Cont", "3038": "AC", "3039": " training", "3040": "field", "3041": "hold", "3042": "uk", "3043": " size", "3044": " Black", "3045": "cies", "3046": " December", "3047": "idents", "3048": " contact", "3049": "ledge", "3050": " hor", "3051": " Her", "3052": " demand", "3053": "While", "3054": " image", "3055": " rac", "3056": " hot", "3057": "ification", "3058": "OS", "3059": " leader", "3060": "set", "3061": "ecause", "3062": " rules", "3063": " prep", "3064": " liber", "3065": "ze", "3066": " search", "3067": " ess", "3068": " Post", "3069": " citiz", "3070": " upon", "3071": " strugg", "3072": " Street", "3073": " latest", "3074": "come", "3075": "ondon", "3076": " independ", "3077": "US", "3078": "uments", "3079": "inks", "3080": "arth", "3081": " features", "3082": " coach", "3083": " Park", "3084": "iant", "3085": " fast", "3086": "Tr", "3087": "oo", "3088": "sych", "3089": " talking", "3090": " Jew", "3091": "omp", "3092": " addition", "3093": "ges", "3094": " star", "3095": " wond", "3096": " Senate", "3097": "IT", "3098": " Pat", "3099": " speed", "3100": " exam", "3101": " considered", "3102": "raq", "3103": "icles", "3104": "aries", "3105": " reb", "3106": " levels", "3107": "eth", "3108": " Times", "3109": " County", "3110": "elligence", "3111": " slow", "3112": " investigation", "3113": "bed", "3114": "ps", "3115": "ille", "3116": " conduct", "3117": "aph", "3118": " Party", "3119": "22", "3120": " King", "3121": " medical", "3122": " mach", "3123": " sn", "3124": "imately", "3125": "vent", "3126": " achie", "3127": " language", "3128": "aturday", "3129": " card", "3130": "unk", "3131": " sort", "3132": " critic", "3133": "ope", "3134": " Tex", "3135": " Center", "3136": " pen", "3137": " und", "3138": " India", "3139": " paper", "3140": "wo", "3141": "ysis", "3142": "IC", "3143": " 2008", "3144": "pir", "3145": " conserv", "3146": " parents", "3147": " sexual", "3148": "ma", "3149": " systems", "3150": " prior", "3151": "uit", "3152": "asc", "3153": "imin", "3154": " doll", "3155": " written", "3156": "uf", "3157": " box", "3158": " spokes", "3159": "igr", "3160": " seek", "3161": " sens", "3162": "eared", "3163": "het", "3164": " document", "3165": "idge", "3166": " increasing", "3167": " hear", "3168": "ani", "3169": "atform", "3170": " draw", "3171": " seven", "3172": " son", "3173": " Muslim", "3174": " effort", "3175": "ruary", "3176": " jobs", "3177": " Iran", "3178": " extreme", "3179": " prevent", "3180": " learn", "3181": "ining", "3182": " serious", "3183": " regul", "3184": "rast", "3185": " inn", "3186": " range", "3187": " ...", "3188": "room", "3189": " violence", "3190": " eight", "3191": " Mark", "3192": "80", "3193": "ources", "3194": " Iraq", "3195": "itch", "3196": "OP", "3197": " surve", "3198": " completely", "3199": " conc", "3200": " 2009", "3201": "eff", "3202": " message", "3203": "ico", "3204": "tr", "3205": "ha", "3206": " \u00e2", "3207": " obv", "3208": " interesting", "3209": "reedom", "3210": "She", "3211": " screen", "3212": "abor", "3213": " opportunity", "3214": " climate", "3215": "24", "3216": " majority", "3217": " Ke", "3218": "anced", "3219": " particularly", "3220": " doub", "3221": " journal", "3222": " despite", "3223": " Rom", "3224": " claims", "3225": "fort", "3226": " answer", "3227": " Char", "3228": " society", "3229": " London", "3230": " defense", "3231": " carry", "3232": "entially", "3233": "aming", "3234": " guy", "3235": " extra", "3236": "ension", "3237": " Donald", "3238": "isions", "3239": " attacks", "3240": " required", "3241": "erve", "3242": "rench", "3243": "illed", "3244": " biggest", "3245": "vertisement", "3246": " East", "3247": " exactly", "3248": " paid", "3249": "mp", "3250": " More", "3251": "iers", "3252": "ibr", "3253": "...", "3254": " experien", "3255": "lying", "3256": "uclear", "3257": "inese", "3258": "isi", "3259": " modern", "3260": " remain", "3261": " quarter", "3262": " officers", "3263": "ett", "3264": " hundred", "3265": " cross", "3266": " except", "3267": "utions", "3268": "ari", "3269": " table", "3270": " practice", "3271": "inally", "3272": " natural", "3273": " middle", "3274": "erc", "3275": " 27", "3276": " certainly", "3277": "na", "3278": " dro", "3279": "oses", "3280": " Saturday", "3281": " stories", "3282": " Net", "3283": " histor", "3284": " gas", "3285": " products", "3286": " surv", "3287": " looked", "3288": " sometimes", "3289": "nces", "3290": " stuff", "3291": " rout", "3292": " science", "3293": " finally", "3294": " user", "3295": " Tur", "3296": "AM", "3297": " summer", "3298": " movie", "3299": " blood", "3300": "ospital", "3301": "aves", "3302": " communic", "3303": " aw", "3304": "ously", "3305": " lay", "3306": " changed", "3307": " term", "3308": " ones", "3309": " leading", "3310": " described", "3311": " Sand", "3312": " imag", "3313": " February", "3314": "fl", "3315": " prison", "3316": " convers", "3317": "ny", "3318": " details", "3319": "icks", "3320": " starting", "3321": " Spe", "3322": " quality", "3323": " occur", "3324": " pan", "3325": "hib", "3326": " showed", "3327": " named", "3328": " giving", "3329": " ult", "3330": " remains", "3331": " McC", "3332": "uing", "3333": " region", "3334": "pper", "3335": " provided", "3336": " costs", "3337": "akers", "3338": " Soc", "3339": "arr", "3340": " damage", "3341": " mob", "3342": " danger", "3343": " fit", "3344": "aught", "3345": " TH", "3346": " chief", "3347": " poor", "3348": " path", "3349": " Mor", "3350": "ida", "3351": " education", "3352": " multiple", "3353": " continued", "3354": "enge", "3355": " Int", "3356": " growing", "3357": "No", "3358": " demonst", "3359": " *", "3360": " parts", "3361": " 26", "3362": " writing", "3363": " comments", "3364": " 28", "3365": " ment", "3366": "yl", "3367": " maintain", "3368": " safe", "3369": " assist", "3370": " thinking", "3371": " Des", "3372": "inary", "3373": " Republicans", "3374": " Even", "3375": " purp", "3376": " request", "3377": " write", "3378": " fix", "3379": " item", "3380": " purch", "3381": "ables", "3382": " died", "3383": " Democratic", "3384": " Coun", "3385": "FL", "3386": "ara", "3387": "ago", "3388": " ready", "3389": "coin", "3390": " wouldn", "3391": " implement", "3392": "23", "3393": " increased", "3394": " culture", "3395": " efforts", "3396": " voters", "3397": "ux", "3398": "pre", "3399": " camer", "3400": " mill", "3401": "aly", "3402": "oper", "3403": " reading", "3404": "mitted", "3405": "iminal", "3406": " file", "3407": " usually", "3408": " calls", "3409": " spot", "3410": "Im", "3411": " effects", "3412": " Gener", "3413": "zz", "3414": " perhaps", "3415": "ban", "3416": " alone", "3417": "arian", "3418": "iles", "3419": " First", "3420": " although", "3421": " towards", "3422": "hest", "3423": " League", "3424": " consist", "3425": " Bill", "3426": " Texas", "3427": " select", "3428": " guys", "3429": " standard", "3430": " Michael", "3431": " subst", "3432": " cele", "3433": " beyond", "3434": " directly", "3435": " platform", "3436": " Chinese", "3437": " (@", "3438": " hous", "3439": "using", "3440": "itute", "3441": " speech", "3442": " reality", "3443": "egr", "3444": "icated", "3445": " kids", "3446": " James", "3447": " avoid", "3448": " throughout", "3449": " football", "3450": " student", "3451": " tur", "3452": " couldn", "3453": "BI", "3454": "ford", "3455": " unf", "3456": " immediately", "3457": "oul", "3458": " rob", "3459": " Ne", "3460": " includes", "3461": " cat", "3462": " concept", "3463": " center", "3464": " choice", "3465": " scene", "3466": " complex", "3467": "anch", "3468": " additional", "3469": "sp", "3470": " Mon", "3471": " challeng", "3472": " Cons", "3473": " wife", "3474": " clos", "3475": " tro", "3476": " recomm", "3477": " researc", "3478": "Re", "3479": " epis", "3480": "itor", "3481": "All", "3482": " ver", "3483": " Minister", "3484": " sle", "3485": " corpor", "3486": " \u00e2\u0080\u00a6", "3487": " designed", "3488": " Ser", "3489": "agon", "3490": " remember", "3491": " software", "3492": " safety", "3493": " Indian", "3494": "wise", "3495": " gone", "3496": " il", "3497": "astic", "3498": "ports", "3499": " cast", "3500": " sell", "3501": " toward", "3502": " agency", "3503": " ten", "3504": " officer", "3505": "aches", "3506": "bur", "3507": " figure", "3508": " piece", "3509": " brain", "3510": "omen", "3511": " battle", "3512": " Jack", "3513": " counter", "3514": "men", "3515": " debate", "3516": "airs", "3517": "ression", "3518": "ston", "3519": " thousands", "3520": "adem", "3521": " swe", "3522": "rupt", "3523": " ahead", "3524": " opin", "3525": "ingin", "3526": "icient", "3527": "Now", "3528": "imum", "3529": " relative", "3530": "irth", "3531": " letter", "3532": " receive", "3533": " pressure", "3534": " Bo", "3535": " \u00d0", "3536": " blog", "3537": "ilies", "3538": "ampions", "3539": " >", "3540": " sil", "3541": " moved", "3542": " launch", "3543": " appears", "3544": " option", "3545": " Play", "3546": " passed", "3547": " ut", "3548": " prec", "3549": " stage", "3550": "roy", "3551": "oes", "3552": " 60", "3553": " clean", "3554": " Serv", "3555": "olute", "3556": " II", "3557": "atever", "3558": "berg", "3559": "OT", "3560": " property", "3561": "27", "3562": " helped", "3563": " drive", "3564": " Apple", "3565": "just", "3566": " alleged", "3567": " Green", "3568": " twe", "3569": "new", "3570": " disapp", "3571": " tour", "3572": " meaning", "3573": " rock", "3574": " dog", "3575": " x", "3576": "urt", "3577": "itation", "3578": " cris", "3579": " Associ", "3580": " suspect", "3581": " date", "3582": " Rich", "3583": "aughter", "3584": " moving", "3585": " score", "3586": " Democrats", "3587": " organization", "3588": " sat", "3589": " conditions", "3590": " touch", "3591": " dark", "3592": " command", "3593": " Then", "3594": " ign", "3595": "?\"", "3596": " reasons", "3597": " budget", "3598": " crow", "3599": " park", "3600": "more", "3601": " nuclear", "3602": " myself", "3603": " nom", "3604": " deg", "3605": " happy", "3606": " device", "3607": " difference", "3608": "rief", "3609": " Sim", "3610": " maybe", "3611": " beginning", "3612": "AD", "3613": " copy", "3614": " nature", "3615": " failed", "3616": "wood", "3617": " fan", "3618": " characters", "3619": "yan", "3620": " computer", "3621": " encour", "3622": "sis", "3623": " aim", "3624": " Mart", "3625": " title", "3626": " wall", "3627": " compared", "3628": " league", "3629": "ocked", "3630": " Super", "3631": "ean", "3632": "ivity", "3633": " estim", "3634": "add", "3635": " Val", "3636": " Star", "3637": " college", "3638": " eyes", "3639": " shown", "3640": " English", "3641": " century", "3642": " powerful", "3643": " Day", "3644": "lease", "3645": "ource", "3646": " bal", "3647": "aint", "3648": " limited", "3649": " yes", "3650": " band", "3651": " contribut", "3652": " positive", "3653": " forced", "3654": " necessary", "3655": " Che", "3656": " refer", "3657": " candidate", "3658": " stra", "3659": " disp", "3660": "35", "3661": "cient", "3662": " books", "3663": " trust", "3664": "AP", "3665": " French", "3666": " largest", "3667": "26", "3668": " arch", "3669": "enty", "3670": " sal", "3671": " Here", "3672": "aud", "3673": " conference", "3674": " Rober", "3675": " note", "3676": " analysis", "3677": "ufact", "3678": " spending", "3679": " presidential", "3680": "45", "3681": " Of", "3682": " citizens", "3683": "orks", "3684": " schools", "3685": "igration", "3686": " Syria", "3687": " throw", "3688": " Ben", "3689": "venue", "3690": " aware", "3691": " meant", "3692": " executive", "3693": " eventually", "3694": "My", "3695": " physical", "3696": " followed", "3697": " feature", "3698": "ares", "3699": " firm", "3700": " treatment", "3701": " Tor", "3702": " Wind", "3703": " streng", "3704": " mix", "3705": " confir", "3706": " bott", "3707": "ero", "3708": " correct", "3709": "orney", "3710": " 29", "3711": " Dis", "3712": " grad", "3713": " religious", "3714": " easily", "3715": "band", "3716": " autom", "3717": " esc", "3718": " pus", "3719": "board", "3720": " cool", "3721": "etro", "3722": " 196", "3723": " families", "3724": " illeg", "3725": "ressed", "3726": "craft", "3727": "cul", "3728": "rated", "3729": " actions", "3730": " overall", "3731": " Air", "3732": " Mex", "3733": " allows", "3734": " gives", "3735": " feed", "3736": " \u00c2\u00a3", "3737": "):", "3738": " susp", "3739": "ube", "3740": " yourself", "3741": "By", "3742": "Is", "3743": " draft", "3744": "ken", "3745": "bum", "3746": " smart", "3747": " appeared", "3748": "ram", "3749": " detail", "3750": " income", "3751": "iring", "3752": " analy", "3753": " Bel", "3754": " signed", "3755": "New", "3756": "encies", "3757": " Ham", "3758": " central", "3759": " ideas", "3760": " ang", "3761": " Govern", "3762": " senior", "3763": "Advertisement", "3764": " frequ", "3765": " weapons", "3766": "ID", "3767": " display", "3768": " har", "3769": " promot", "3770": " nice", "3771": "inn", "3772": " credit", "3773": " decades", "3774": " psych", "3775": " politics", "3776": "Don", "3777": " Bre", "3778": " crime", "3779": "OM", "3780": "EC", "3781": "chan", "3782": " uses", "3783": " door", "3784": " dise", "3785": "uty", "3786": " International", "3787": " unique", "3788": "28", "3789": " altern", "3790": " lif", "3791": "According", "3792": " drop", "3793": " sales", "3794": "mar", "3795": " developed", "3796": "***", "3797": "resh", "3798": " customers", "3799": "ET", "3800": " benefits", "3801": " conflic", "3802": "urance", "3803": "Ar", "3804": " related", "3805": " crisis", "3806": " School", "3807": " mist", "3808": "erry", "3809": "iable", "3810": " predict", "3811": " noted", "3812": " Cap", "3813": "29", "3814": " Australia", "3815": " EU", "3816": "box", "3817": " truth", "3818": "part", "3819": " goals", "3820": "iny", "3821": " individuals", "3822": " charge", "3823": " Earth", "3824": " beaut", "3825": " continues", "3826": "onents", "3827": " Union", "3828": " Arab", "3829": " observ", "3830": " rap", "3831": " challenge", "3832": "que", "3833": " sto", "3834": "nown", "3835": " apparent", "3836": " Angel", "3837": "itely", "3838": " Smith", "3839": "Be", "3840": " lic", "3841": " projects", "3842": " peace", "3843": " measure", "3844": " Police", "3845": "oti", "3846": " intelligence", "3847": " Christian", "3848": " previously", "3849": " Germany", "3850": " fully", "3851": " rule", "3852": " manager", "3853": " brother", "3854": " rates", "3855": " advant", "3856": "change", "3857": " expand", "3858": " clearly", "3859": " reform", "3860": "net", "3861": " lines", "3862": " successful", "3863": "riage", "3864": " highly", "3865": " larger", "3866": "ounds", "3867": "Un", "3868": " traff", "3869": " spread", "3870": "iance", "3871": " seemed", "3872": " Council", "3873": " straight", "3874": "Some", "3875": " criminal", "3876": " Comp", "3877": " minor", "3878": " emb", "3879": " George", "3880": " programs", "3881": "iced", "3882": "attle", "3883": "owers", "3884": " Franc", "3885": " incident", "3886": " resources", "3887": "21", "3888": " Tom", "3889": " greater", "3890": " primary", "3891": "IA", "3892": "inated", "3893": "antly", "3894": " knowledge", "3895": "Pro", "3896": " studies", "3897": "while", "3898": "dom", "3899": " save", "3900": "orter", "3901": " web", "3902": "ategy", "3903": " kept", "3904": " attract", "3905": "ki", "3906": " Flor", "3907": "olic", "3908": " spir", "3909": " emot", "3910": " color", "3911": " feet", "3912": "sey", "3913": " rare", "3914": " reached", "3915": " arm", "3916": " Ant", "3917": "secut", "3918": " High", "3919": "levision", "3920": " Internet", "3921": " Brown", "3922": "oday", "3923": "iders", "3924": "osh", "3925": " favorite", "3926": " Cr", "3927": " places", "3928": " Rec", "3929": "rs", "3930": " regular", "3931": "wide", "3932": "ota", "3933": "vere", "3934": "bon", "3935": " manufact", "3936": " laun", "3937": " Def", "3938": "100", "3939": " send", "3940": "term", "3941": " prem", "3942": "roll", "3943": "lick", "3944": "icit", "3945": "ingly", "3946": " knows", "3947": " shooting", "3948": " activity", "3949": " pun", "3950": " sources", "3951": " normal", "3952": "icago", "3953": "onent", "3954": "ser", "3955": " status", "3956": " fighting", "3957": "ville", "3958": " voice", "3959": " rise", "3960": "ocks", "3961": " fine", "3962": " owners", "3963": " caused", "3964": " claimed", "3965": " Mac", "3966": " enem", "3967": " liter", "3968": " Rob", "3969": " Up", "3970": " General", "3971": "aith", "3972": "EO", "3973": " options", "3974": " 2007", "3975": " integr", "3976": "ength", "3977": "usion", "3978": " spend", "3979": " Gold", "3980": "ado", "3981": " cities", "3982": "miss", "3983": " organiz", "3984": "ING", "3985": " ended", "3986": "www", "3987": " researchers", "3988": "iled", "3989": " calling", "3990": " shut", "3991": " reflect", "3992": " La", "3993": "org", "3994": "mission", "3995": "mark", "3996": "\u00e2\u0080\u009d,", "3997": "oles", "3998": "70", "3999": "roid", "4000": " prices", "4001": " Every", "4002": " album", "4003": " From", "4004": "ifying", "4005": " employees", "4006": " female", "4007": " England", "4008": "ya", "4009": " virt", "4010": " crowd", "4011": " haven", "4012": " raised", "4013": "mittee", "4014": " ele", "4015": "uana", "4016": " jump", "4017": "33", "4018": " supposed", "4019": "itness", "4020": " happens", "4021": " adding", "4022": " policies", "4023": " names", "4024": " charges", "4025": " pros", "4026": " trou", "4027": "ica", "4028": "ribution", "4029": " basic", "4030": "uman", "4031": "Not", "4032": "iverse", "4033": "inger", "4034": " Mag", "4035": " concerns", "4036": " traditional", "4037": " wait", "4038": " plant", "4039": " absolute", "4040": " acqu", "4041": " hospital", "4042": " funding", "4043": " Bay", "4044": " print", "4045": " slight", "4046": "rol", "4047": " commer", "4048": " patients", "4049": " authorities", "4050": " minister", "4051": "Sc", "4052": " creating", "4053": " freedom", "4054": " AP", "4055": " mechan", "4056": " scen", "4057": " Mo", "4058": " style", "4059": " seeing", "4060": " grand", "4061": ".\u00e2\u0080\u0099", "4062": " beat", "4063": " lik", "4064": "dd", "4065": "ona", "4066": "rian", "4067": " station", "4068": " Scott", "4069": "see", "4070": " push", "4071": "ijuana", "4072": " behavior", "4073": " leaving", "4074": " cry", "4075": " impl", "4076": " birth", "4077": " ir", "4078": " actual", "4079": "EL", "4080": "pen", "4081": " ensure", "4082": " offered", "4083": " agreement", "4084": " Florida", "4085": " eth", "4086": "soft", "4087": " Hillary", "4088": " posted", "4089": " Reg", "4090": " gold", "4091": " Sun", "4092": " Ber", "4093": " weekend", "4094": " green", "4095": " Most", "4096": " adult", "4097": "alse", "4098": " weight", "4099": "OU", "4100": ".'", "4101": "acing", "4102": " determin", "4103": " vac", "4104": "Here", "4105": " revealed", "4106": " Well", "4107": " application", "4108": " mostly", "4109": " values", "4110": " propos", "4111": "itude", "4112": " Alex", "4113": "aby", "4114": " willing", "4115": "earch", "4116": " rank", "4117": " adop", "4118": " According", "4119": " establ", "4120": " eye", "4121": " records", "4122": "amb", "4123": "ection", "4124": "\u00e2\u0080\u00a2", "4125": "500", "4126": " enforce", "4127": "http", "4128": " picture", "4129": " believed", "4130": "pri", "4131": " mer", "4132": "uild", "4133": " brief", "4134": " Let", "4135": " learned", "4136": " Law", "4137": " install", "4138": " strategy", "4139": " appl", "4140": "igned", "4141": " choose", "4142": "istry", "4143": "gen", "4144": "SA", "4145": " dire", "4146": " wonder", "4147": " qual", "4148": " massive", "4149": " devices", "4150": " benefit", "4151": " wild", "4152": " parties", "4153": " Chicago", "4154": " lawy", "4155": " People", "4156": " uns", "4157": "cher", "4158": " cars", "4159": " Trans", "4160": " Port", "4161": "cont", "4162": " Phil", "4163": " arrested", "4164": " mount", "4165": " whatever", "4166": " wat", "4167": " Oh", "4168": " France", "4169": " street", "4170": " ;", "4171": " provides", "4172": " whom", "4173": " assault", "4174": "90", "4175": "liament", "4176": " asking", "4177": " influence", "4178": "ties", "4179": " judge", "4180": " lose", "4181": " fat", "4182": " feeling", "4183": " operations", "4184": " produced", "4185": " temper", "4186": "ste", "4187": " critical", "4188": " Lou", "4189": " Secret", "4190": " negoti", "4191": "point", "4192": " mission", "4193": " enter", "4194": " Bush", "4195": "Ex", "4196": " images", "4197": "\u00d0\u00be", "4198": " Stud", "4199": " confirmed", "4200": " showing", "4201": "IL", "4202": " district", "4203": "ription", "4204": " runs", "4205": " pattern", "4206": " tend", "4207": " Mat", "4208": "===", "4209": " border", "4210": " residents", "4211": "orial", "4212": "rav", "4213": " debt", "4214": "However", "4215": " \u00c3", "4216": "aked", "4217": " cru", "4218": " teac", "4219": " Committee", "4220": "mine", "4221": "Cl", "4222": " opposition", "4223": " celebr", "4224": " Wall", "4225": " Health", "4226": " section", "4227": " defend", "4228": " etc", "4229": "estic", "4230": " produce", "4231": "icial", "4232": " Commission", "4233": " drink", "4234": " independent", "4235": " Mod", "4236": "ront", "4237": "cell", "4238": " Why", "4239": " brand", "4240": "ented", "4241": "ugg", "4242": "ags", "4243": " core", "4244": " Press", "4245": " tick", "4246": " digital", "4247": " Bit", "4248": " hero", "4249": " advoc", "4250": " dollars", "4251": "ae", "4252": " Sam", "4253": "ocr", "4254": "rial", "4255": " effective", "4256": " solution", "4257": " Mal", "4258": " vill", "4259": " interested", "4260": " Korea", "4261": " highest", "4262": "BA", "4263": "irg", "4264": "ords", "4265": " memory", "4266": " opening", "4267": " worse", "4268": " learning", "4269": " responsible", "4270": " trial", "4271": " daily", "4272": " kick", "4273": " theory", "4274": " Other", "4275": " offers", "4276": " Palest", "4277": "me", "4278": " replace", "4279": " restrict", "4280": " mur", "4281": " Get", "4282": " Office", "4283": " agreed", "4284": " television", "4285": " Francis", "4286": "cience", "4287": " Micro", "4288": " Because", "4289": " occas", "4290": "ST", "4291": "illing", "4292": "CC", "4293": " train", "4294": " investment", "4295": " vs", "4296": " types", "4297": "iation", "4298": " Western", "4299": "icians", "4300": " chair", "4301": "aks", "4302": " miles", "4303": " millions", "4304": "no", "4305": "gency", "4306": " chem", "4307": " Justice", "4308": " Del", "4309": " generally", "4310": " basis", "4311": " proposed", "4312": " 80", "4313": " Mike", "4314": " Mil", "4315": " Cup", "4316": "These", "4317": "ipe", "4318": " heavy", "4319": " explained", "4320": " Our", "4321": " map", "4322": "uries", "4323": "AA", "4324": "rad", "4325": " der", "4326": "oly", "4327": " partners", "4328": "ander", "4329": " opinion", "4330": " defe", "4331": " onto", "4332": " protest", "4333": "Con", "4334": "Get", "4335": " associated", "4336": " load", "4337": "rig", "4338": "azing", "4339": " NFL", "4340": "rate", "4341": "oom", "4342": "44", "4343": "win", "4344": " Found", "4345": " male", "4346": " becomes", "4347": " reject", "4348": "outhern", "4349": "===", "4350": " Security", "4351": "vest", "4352": " coal", "4353": " obtain", "4354": " destroy", "4355": " advantage", "4356": " assum", "4357": " Liber", "4358": " condition", "4359": " announce", "4360": " hundreds", "4361": " achieve", "4362": " opened", "4363": "eline", "4364": " understanding", "4365": "odes", "4366": " Johnson", "4367": "coming", "4368": "icip", "4369": " surround", "4370": "ading", "4371": "bert", "4372": "orthern", "4373": "well", "4374": "upp", "4375": " initial", "4376": " Att", "4377": " Big", "4378": " sleep", "4379": "36", "4380": " ship", "4381": " marriage", "4382": " management", "4383": " Windows", "4384": " thus", "4385": " limit", "4386": " born", "4387": " becoming", "4388": "known", "4389": " photo", "4390": " easier", "4391": "FC", "4392": " Great", "4393": " rat", "4394": " legislation", "4395": " controvers", "4396": " unlike", "4397": " electric", "4398": " Many", "4399": "32", "4400": " camera", "4401": " Mad", "4402": "witch", "4403": " accused", "4404": " spl", "4405": " neighbor", "4406": " double", "4407": " ice", "4408": " species", "4409": " shared", "4410": "lant", "4411": " join", "4412": " illegal", "4413": " 31", "4414": " Lab", "4415": " 2006", "4416": "Mr", "4417": " harm", "4418": " machine", "4419": " served", "4420": " Jer", "4421": "GB", "4422": " extremely", "4423": "olf", "4424": " active", "4425": " 35", "4426": " serve", "4427": " documents", "4428": " Islamic", "4429": " frame", "4430": " strik", "4431": "level", "4432": "za", "4433": " Dist", "4434": " audience", "4435": "BS", "4436": " location", "4437": " AM", "4438": " scientists", "4439": " bottom", "4440": "orrow", "4441": " victims", "4442": " Art", "4443": " wealth", "4444": " professional", "4445": " resist", "4446": " reduce", "4447": " belief", "4448": " nine", "4449": " solid", "4450": " winning", "4451": " marijuana", "4452": "ears", "4453": " Uk", "4454": " negative", "4455": "75", "4456": "iful", "4457": "ih", "4458": " communities", "4459": " returned", "4460": "ortunately", "4461": " incred", "4462": " PM", "4463": " Institute", "4464": "met", "4465": "tered", "4466": " church", "4467": "PS", "4468": " department", "4469": " Sanders", "4470": " ran", "4471": " victory", "4472": "rey", "4473": " purpose", "4474": " 90", "4475": " Commun", "4476": " amb", "4477": "lands", "4478": " vehicle", "4479": " internet", "4480": " leadership", "4481": " Hall", "4482": "istics", "4483": " bomb", "4484": "ios", "4485": " mobile", "4486": "ghan", "4487": " instance", "4488": "ipped", "4489": "38", "4490": " separate", "4491": " existing", "4492": " notice", "4493": " hearing", "4494": " die", "4495": " explain", "4496": " doubt", "4497": " faith", "4498": " teach", "4499": "house", "4500": " Your", "4501": "atically", "4502": " episode", "4503": " bed", "4504": " watching", "4505": " comfort", "4506": " Canadian", "4507": " Bank", "4508": " notes", "4509": " radio", "4510": "irgin", "4511": " Ev", "4512": " fresh", "4513": " unc", "4514": " views", "4515": " Inc", "4516": " putting", "4517": "asy", "4518": " Sl", "4519": " Fin", "4520": " supporters", "4521": " conservative", "4522": " purs", "4523": " argument", "4524": "omas", "4525": " micro", "4526": "ario", "4527": "acity", "4528": " launched", "4529": "scrib", "4530": "works", "4531": "OL", "4532": " appeal", "4533": "iliar", "4534": " items", "4535": " committee", "4536": "resp", "4537": "which", "4538": " definitely", "4539": "ada", "4540": " dangerous", "4541": "iller", "4542": "zen", "4543": " coverage", "4544": " direction", "4545": " Over", "4546": " charged", "4547": " floor", "4548": " sun", "4549": "PA", "4550": " max", "4551": "ography", "4552": "34", "4553": "EM", "4554": " Carol", "4555": " Church", "4556": " Fox", "4557": " issued", "4558": " drugs", "4559": "Image", "4560": " task", "4561": "ipp", "4562": " background", "4563": " competition", "4564": " trend", "4565": " stated", "4566": "vention", "4567": "andom", "4568": " traffic", "4569": " FBI", "4570": " commercial", "4571": " Direct", "4572": "itt", "4573": " spoke", "4574": " sett", "4575": "inct", "4576": " transfer", "4577": " suggested", "4578": " structure", "4579": " sites", "4580": " hus", "4581": " north", "4582": " Since", "4583": " Like", "4584": " restaur", "4585": "ampionship", "4586": " labor", "4587": " decade", "4588": " Bur", "4589": " repeated", "4590": " Game", "4591": " react", "4592": "oman", "4593": " cards", "4594": " animals", "4595": "going", "4596": " novel", "4597": "ctors", "4598": "bing", "4599": "but", "4600": "NA", "4601": "ribute", "4602": " daughter", "4603": "anted", "4604": " driving", "4605": " closed", "4606": " worst", "4607": " contain", "4608": " entirely", "4609": " ded", "4610": " Britain", "4611": "ici", "4612": "Bl", "4613": "ady", "4614": " driver", "4615": " Wil", "4616": " disease", "4617": " telling", "4618": "iling", "4619": " smaller", "4620": " discovered", "4621": " nor", "4622": "akistan", "4623": " refere", "4624": " Pri", "4625": "Americ", "4626": " Los", "4627": " hack", "4628": "equ", "4629": "!\u00e2\u0080\u009d", "4630": "ference", "4631": " Que", "4632": "spe", "4633": " false", "4634": " cash", "4635": " concerned", "4636": "ulf", "4637": " plays", "4638": " surface", "4639": "semb", "4640": "udd", "4641": " supported", "4642": "annel", "4643": "ulated", "4644": " tools", "4645": "oyal", "4646": " compar", "4647": " transport", "4648": " Chris", "4649": " experiment", "4650": " finding", "4651": "night", "4652": " categ", "4653": "\u00e3\u0082", "4654": "ait", "4655": " aspect", "4656": "##", "4657": " businesses", "4658": " 70", "4659": " UN", "4660": " farm", "4661": " please", "4662": " older", "4663": "azon", "4664": "how", "4665": " activities", "4666": " requires", "4667": "phone", "4668": "CH", "4669": " gay", "4670": " Jones", "4671": "ibrary", "4672": " strength", "4673": "48", "4674": " wel", "4675": "do", "4676": "andon", "4677": " insurance", "4678": " consequ", "4679": "37", "4680": " largely", "4681": " murder", "4682": "NN", "4683": "55", "4684": " exerc", "4685": " caught", "4686": " candidates", "4687": "kins", "4688": " Israeli", "4689": " allowing", "4690": "icy", "4691": " blue", "4692": " Are", "4693": " annual", "4694": " Ken", "4695": " testing", "4696": "ius", "4697": "ossible", "4698": " strateg", "4699": " Sup", "4700": " raise", "4701": " stock", "4702": "arant", "4703": "overy", "4704": " Robert", "4705": "izes", "4706": "gers", "4707": " decisions", "4708": " accur", "4709": "rick", "4710": " context", "4711": " fuel", "4712": " Ac", "4713": "SP", "4714": "osure", "4715": "lor", "4716": " Ukrain", "4717": " concern", "4718": " afford", "4719": " believes", "4720": " construction", "4721": " truly", "4722": "***", "4723": " Ty", "4724": " Miss", "4725": " ge", "4726": " justice", "4727": "igrants", "4728": " generation", "4729": " highlight", "4730": "rim", "4731": " Tre", "4732": " unit", "4733": " presence", "4734": " Jewish", "4735": "anging", "4736": "!!", "4737": " Sil", "4738": "\u00d0\u00b0", "4739": "tery", "4740": "\u00d0\u00b5", "4741": "ception", "4742": " Africa", "4743": " guess", "4744": "ancy", "4745": " witness", "4746": "itable", "4747": " holding", "4748": "ey", "4749": " Gree", "4750": " establish", "4751": " length", "4752": " planning", "4753": "bre", "4754": "ava", "4755": " African", "4756": " sequ", "4757": "cknow", "4758": " refuge", "4759": " placed", "4760": " catch", "4761": " Afghan", "4762": " san", "4763": " Association", "4764": " tells", "4765": "\u00e2\u0080\u0098", "4766": "inter", "4767": " scale", "4768": " spokesman", "4769": " tim", "4770": "nel", "4771": " rough", "4772": " attend", "4773": "olly", "4774": " Ver", "4775": " cells", "4776": " joined", "4777": " Add", "4778": " mentioned", "4779": " interests", "4780": " abuse", "4781": "\u00e2\u0080\u0094\u00e2\u0080", "4782": "pective", "4783": " Jim", "4784": " Pre", "4785": "More", "4786": " hasn", "4787": " PC", "4788": "Le", "4789": " initi", "4790": " kid", "4791": " enforcement", "4792": " GOP", "4793": " introduced", "4794": " deliver", "4795": " conflict", "4796": " Mer", "4797": " Microsoft", "4798": "\u0094\u00e2\u0080\u0094", "4799": " phil", "4800": " update", "4801": " missing", "4802": " providing", "4803": " waiting", "4804": " cancer", "4805": "la", "4806": "39", "4807": " recommend", "4808": "ocracy", "4809": " established", "4810": "bour", "4811": "isation", "4812": " eat", "4813": " Yes", "4814": " occup", "4815": " Frank", "4816": " Jeff", "4817": " Angeles", "4818": " removed", "4819": " 2005", "4820": "ula", "4821": " offensive", "4822": " Fore", "4823": " Instead", "4824": "icon", "4825": " injury", "4826": " sports", "4827": "47", "4828": " fant", "4829": " discussion", "4830": "vant", "4831": " operation", "4832": " download", "4833": " useful", "4834": " newsp", "4835": " conversation", "4836": " homes", "4837": "ronic", "4838": " south", "4839": " cook", "4840": " CEO", "4841": " assess", "4842": "itz", "4843": " Group", "4844": "formation", "4845": "lig", "4846": " banks", "4847": "onto", "4848": " stopped", "4849": " Step", "4850": " Const", "4851": " obvious", "4852": "ications", "4853": " measures", "4854": " models", "4855": " Kh", "4856": " fourth", "4857": " MP", "4858": "Our", "4859": "season", "4860": "what", "4861": " bul", "4862": "DA", "4863": " 2018", "4864": "anda", "4865": " files", "4866": " girls", "4867": " Louis", "4868": " stick", "4869": "cks", "4870": "azine", "4871": "mail", "4872": "umn", "4873": " managed", "4874": "iter", "4875": "apped", "4876": "oted", "4877": " figures", "4878": "oms", "4879": " Tim", "4880": " Leg", "4881": " identified", "4882": " graph", "4883": "000", "4884": " Jud", "4885": " Sal", "4886": " finished", "4887": "Pl", "4888": " funds", "4889": " Pakistan", "4890": "real", "4891": " setting", "4892": " conclud", "4893": " prefer", "4894": " hair", "4895": " committed", "4896": " Mexico", "4897": "49", "4898": " skills", "4899": " appropri", "4900": " spirit", "4901": " Rock", "4902": " veter", "4903": " focused", "4904": " arrived", "4905": " THE", "4906": " housing", "4907": " keeping", "4908": " therefore", "4909": "ros", "4910": " acknow", "4911": " detect", "4912": "ulate", "4913": "Des", "4914": " partner", "4915": " exclus", "4916": "igan", "4917": " Android", "4918": "enses", "4919": "rd", "4920": "ups", "4921": " earth", "4922": " transl", "4923": "place", "4924": " tough", "4925": "kin", "4926": "outs", "4927": " Japanese", "4928": " 2000", "4929": " relatively", "4930": "\u00c3\u00a1", "4931": " Supreme", "4932": "owl", "4933": "wing", "4934": " identity", "4935": " feels", "4936": "gl", "4937": " Met", "4938": " otherwise", "4939": " survey", "4940": " Ryan", "4941": "ocal", "4942": "RA", "4943": "ication", "4944": "itutional", "4945": " protection", "4946": " exchange", "4947": " owner", "4948": " Virgin", "4949": "isf", "4950": "Trump", "4951": " trip", "4952": " steps", "4953": " husband", "4954": " Inter", "4955": "agn", "4956": " Mont", "4957": " tweet", "4958": " connection", "4959": " Army", "4960": " slightly", "4961": " Prof", "4962": "eah", "4963": " Sur", "4964": " weak", "4965": " Government", "4966": "verse", "4967": "\":", "4968": " circum", "4969": " elements", "4970": " click", "4971": " Richard", "4972": " strike", "4973": " photos", "4974": " mere", "4975": " defensive", "4976": "dden", "4977": " gain", "4978": " fle", "4979": " depend", "4980": "ucky", "4981": " collection", "4982": "gar", "4983": "onym", "4984": " killing", "4985": " roll", "4986": "ighter", "4987": "hens", "4988": "Go", "4989": " corner", "4990": "ka", "4991": "ancing", "4992": "odies", "4993": " suggests", "4994": "uct", "4995": " aggress", "4996": "with", "4997": "prof", "4998": " guard", "4999": "Photo", "5000": " gender", "5001": "makers", "5002": " College", "5003": " commission", "5004": " Although", "5005": "range", "5006": " dat", "5007": "46", "5008": " Ir", "5009": " Dec", "5010": " mental", "5011": "icide", "5012": "rees", "5013": " amazing", "5014": " Sub", "5015": "hi", "5016": " planet", "5017": " Team", "5018": "rency", "5019": " Out", "5020": " bigger", "5021": "ym", "5022": " failure", "5023": " Jose", "5024": " supply", "5025": "Why", "5026": "ania", "5027": " Nor", "5028": " starts", "5029": " sides", "5030": "hedul", "5031": "iser", "5032": " familiar", "5033": " remind", "5034": " sust", "5035": " spect", "5036": "ils", "5037": "uate", "5038": " speaking", "5039": "ano", "5040": " talks", "5041": " happening", "5042": "gypt", "5043": " organizations", "5044": " hate", "5045": " window", "5046": " army", "5047": " Good", "5048": " Joe", "5049": " none", "5050": "uke", "5051": " taxes", "5052": " planned", "5053": " Martin", "5054": " Pet", "5055": " thanks", "5056": " Mary", "5057": " struct", "5058": " pit", "5059": " decide", "5060": " sudden", "5061": " wish", "5062": " crew", "5063": " carried", "5064": " appoint", "5065": "oston", "5066": " pet", "5067": "mas", "5068": "awn", "5069": "eless", "5070": "agues", "5071": "ynam", "5072": " regist", "5073": "TC", "5074": " multi", "5075": "idering", "5076": " helping", "5077": "Last", "5078": " award", "5079": " standards", "5080": " 32", "5081": " Fire", "5082": " revolution", "5083": " environmental", "5084": "].", "5085": " Web", "5086": "arsh", "5087": " Thomas", "5088": "olit", "5089": " script", "5090": "pm", "5091": "ola", "5092": " seconds", "5093": "run", "5094": " Research", "5095": "gn", "5096": " scientific", "5097": " immigration", "5098": " Bern", "5099": " standing", "5100": " Their", "5101": " 45", "5102": "stream", "5103": "ocol", "5104": " que", "5105": " beer", "5106": " domestic", "5107": "imal", "5108": "adium", "5109": " pair", "5110": "uters", "5111": " Also", "5112": " Secretary", "5113": " Us", "5114": " academ", "5115": " cold", "5116": " variety", "5117": " markets", "5118": "aven", "5119": " sch", "5120": "HL", "5121": " territ", "5122": " dropped", "5123": "fe", "5124": " accounts", "5125": "!\"", "5126": " Atlant", "5127": " filed", "5128": "erous", "5129": "acks", "5130": "illa", "5131": " balance", "5132": "lo", "5133": " impossible", "5134": " Ter", "5135": " interact", "5136": " neighborhood", "5137": " degree", "5138": "Read", "5139": " turns", "5140": "itect", "5141": " possibly", "5142": " appre", "5143": " operating", "5144": " princ", "5145": " alternative", "5146": " union", "5147": " votes", "5148": " vul", "5149": "ader", "5150": " professor", "5151": " tack", "5152": " Service", "5153": " increasingly", "5154": "ayer", "5155": "ruit", "5156": " apply", "5157": " fellow", "5158": " cuts", "5159": "ores", "5160": " honest", "5161": " Prime", "5162": " univers", "5163": " server", "5164": " developers", "5165": "arks", "5166": " Syrian", "5167": " apparently", "5168": "vis", "5169": "stein", "5170": " lived", "5171": " changing", "5172": " worry", "5173": "rastructure", "5174": " Carolina", "5175": " tests", "5176": " units", "5177": " rich", "5178": " Two", "5179": "aren", "5180": "cious", "5181": "icted", "5182": "From", "5183": "aded", "5184": " humans", "5185": "IM", "5186": " Foundation", "5187": " Mos", "5188": " agencies", "5189": " sounds", "5190": "ashed", "5191": " twice", "5192": " ultimately", "5193": "obby", "5194": " losing", "5195": " philos", "5196": " authority", "5197": " soldiers", "5198": "\u00e3\u0083", "5199": " animal", "5200": " Images", "5201": " settle", "5202": " ath", "5203": " schedul", "5204": " mut", "5205": " colle", "5206": " corporate", "5207": " absolutely", "5208": " healthy", "5209": " paying", "5210": "och", "5211": " equip", "5212": "iams", "5213": "gu", "5214": " developing", "5215": " sea", "5216": " Time", "5217": " Den", "5218": " closer", "5219": " innov", "5220": "related", "5221": " seeking", "5222": " regarding", "5223": "coh", "5224": " skin", "5225": " expensive", "5226": "ansion", "5227": " possibility", "5228": " beautiful", "5229": " religion", "5230": " apart", "5231": " Central", "5232": " fundament", "5233": " experts", "5234": " solar", "5235": "65", "5236": " yards", "5237": " vast", "5238": " writer", "5239": " flight", "5240": " District", "5241": " Last", "5242": " deploy", "5243": " adjust", "5244": "Of", "5245": " internal", "5246": " tast", "5247": " Under", "5248": " Lat", "5249": " Peter", "5250": "apers", "5251": " imagine", "5252": " Jon", "5253": "IV", "5254": " applications", "5255": "ologies", "5256": "31", "5257": " vision", "5258": "look", "5259": "state", "5260": "osen", "5261": " Francisco", "5262": "iot", "5263": " Toronto", "5264": " sitting", "5265": " Plan", "5266": " trail", "5267": " unless", "5268": " USA", "5269": " Jes", "5270": "isted", "5271": " heat", "5272": " 2004", "5273": "IP", "5274": "Even", "5275": " responsibility", "5276": " capacity", "5277": "atures", "5278": " Middle", "5279": " error", "5280": "aine", "5281": " symb", "5282": " fol", "5283": "pire", "5284": " arms", "5285": " pil", "5286": " gar", "5287": " covered", "5288": "idden", "5289": "ias", "5290": " famous", "5291": " Camp", "5292": " forms", "5293": "uzz", "5294": "ND", "5295": " university", "5296": " guarant", "5297": " tight", "5298": " presented", "5299": "ortion", "5300": "oving", "5301": "enced", "5302": " ST", "5303": " clim", "5304": " Egypt", "5305": " earn", "5306": " Put", "5307": " convention", "5308": "under", "5309": "Just", "5310": " Public", "5311": " surprise", "5312": " attorney", "5313": " elections", "5314": " estimated", "5315": " fif", "5316": " Mur", "5317": " Ari", "5318": " teen", "5319": " instit", "5320": " vehicles", "5321": "rible", "5322": " Amazon", "5323": "road", "5324": " intended", "5325": " rid", "5326": " odd", "5327": " helps", "5328": " occurred", "5329": "person", "5330": "ala", "5331": " streets", "5332": "uster", "5333": "hand", "5334": " Boston", "5335": " Sol", "5336": " =>", "5337": "roud", "5338": " sport", "5339": "=\"", "5340": "sen", "5341": " determine", "5342": "ressive", "5343": " Bitcoin", "5344": " expert", "5345": " schem", "5346": "alls", "5347": " consult", "5348": "uration", "5349": " broken", "5350": "Let", "5351": "lets", "5352": " fired", "5353": " ton", "5354": " flow", "5355": " domin", "5356": "porary", "5357": "eder", "5358": "LE", "5359": " shall", "5360": " reserv", "5361": "Up", "5362": " troops", "5363": "ION", "5364": " Those", "5365": " hyp", "5366": " nar", "5367": "terday", "5368": " pieces", "5369": " Chief", "5370": " prepared", "5371": " Mass", "5372": " Cath", "5373": " rapid", "5374": "orage", "5375": " Jo", "5376": " located", "5377": " Social", "5378": " baby", "5379": " conclus", "5380": " bringing", "5381": "anche", "5382": " Prot", "5383": " prove", "5384": " specifically", "5385": " Any", "5386": " potentially", "5387": " sector", "5388": " random", "5389": " jail", "5390": "OW", "5391": " selling", "5392": " governments", "5393": " Once", "5394": " equal", "5395": "Ab", "5396": "class", "5397": "war", "5398": " faster", "5399": " heav", "5400": " Spr", "5401": " boost", "5402": "useum", "5403": "vey", "5404": " proposal", "5405": "oty", "5406": " factors", "5407": " clin", "5408": " Gal", "5409": " plenty", "5410": "TH", "5411": " equipment", "5412": " council", "5413": " era", "5414": " infrastructure", "5415": "Do", "5416": " stress", "5417": "phas", "5418": " stars", "5419": " Journal", "5420": " Rub", "5421": "endment", "5422": " Virginia", "5423": " breat", "5424": " prosecut", "5425": " voted", "5426": " offering", "5427": " carbon", "5428": "inent", "5429": " expressed", "5430": " vulner", "5431": " combat", "5432": " broke", "5433": "()", "5434": "ureau", "5435": " clot", "5436": " Cur", "5437": "ours", "5438": " Federal", "5439": " ruling", "5440": " retail", "5441": " Guard", "5442": " refused", "5443": " dram", "5444": " elected", "5445": "anish", "5446": " Open", "5447": " River", "5448": "Every", "5449": " secure", "5450": "cean", "5451": " seasons", "5452": " conducted", "5453": ",'", "5454": " Paris", "5455": "ht", "5456": " challenges", "5457": " remove", "5458": "isher", "5459": " Sant", "5460": "rog", "5461": " methods", "5462": " weapon", "5463": "noon", "5464": " pointed", "5465": " Island", "5466": " master", "5467": " remained", "5468": " Australian", "5469": " prime", "5470": "ENT", "5471": " trig", "5472": " positions", "5473": " Cru", "5474": " din", "5475": " Mel", "5476": " criticism", "5477": "ipping", "5478": "First", "5479": "ocking", "5480": " Medic", "5481": " Please", "5482": "onom", "5483": "IG", "5484": " sale", "5485": "olved", "5486": " Fe", "5487": " cultural", "5488": "that", "5489": " weren", "5490": " significantly", "5491": " brow", "5492": "etic", "5493": " originally", "5494": "rie", "5495": " During", "5496": " affected", "5497": " appearance", "5498": " cas", "5499": " tourn", "5500": " facing", "5501": " greatest", "5502": " finish", "5503": " Lee", "5504": " stret", "5505": " youth", "5506": "yr", "5507": " tele", "5508": " Who", "5509": " percentage", "5510": " Photo", "5511": "col", "5512": " determined", "5513": " signs", "5514": " involve", "5515": "95", "5516": "cel", "5517": "\u00d0\u00b8", "5518": " thank", "5519": " bought", "5520": " 500", "5521": "lyn", "5522": "standing", "5523": " chemical", "5524": "ashion", "5525": "64", "5526": " shape", "5527": " Sing", "5528": " regime", "5529": " grew", "5530": "pired", "5531": " remaining", "5532": " Steve", "5533": "lymp", "5534": " minimum", "5535": " Saud", "5536": "reens", "5537": " indeed", "5538": " dream", "5539": "rier", "5540": "Since", "5541": " marg", "5542": "Sp", "5543": " Both", "5544": ">>", "5545": " mode", "5546": " herself", "5547": " voting", "5548": " Color", "5549": " obviously", "5550": " Force", "5551": " Ro", "5552": " reduced", "5553": " Nov", "5554": " wood", "5555": " Rem", "5556": "ordin", "5557": " recorded", "5558": " argued", "5559": " 1990", "5560": " revenue", "5561": " tact", "5562": " wearing", "5563": "aling", "5564": "ighters", "5565": " leads", "5566": "edia", "5567": " hun", "5568": " politicians", "5569": " plus", "5570": " contrast", "5571": " switch", "5572": " handle", "5573": " purchase", "5574": " thr", "5575": " subs", "5576": " concent", "5577": " proced", "5578": "\u00d1\u0082", "5579": " agent", "5580": "hab", "5581": "arp", "5582": "mm", "5583": " Williams", "5584": " appreci", "5585": " experienced", "5586": " hurt", "5587": "top", "5588": " excited", "5589": " videos", "5590": " https", "5591": "cohol", "5592": " supporting", "5593": "DP", "5594": " Haw", "5595": "ownt", "5596": " vir", "5597": " Free", "5598": " surprising", "5599": " minute", "5600": " explos", "5601": " belong", "5602": " consumers", "5603": " identify", "5604": " considering", "5605": " Pac", "5606": " Conserv", "5607": "ller", "5608": "apter", "5609": " aircraft", "5610": " rent", "5611": " aid", "5612": "CL", "5613": " pulled", "5614": "gment", "5615": " basically", "5616": " differences", "5617": "ogue", "5618": " Book", "5619": " glass", "5620": " Rad", "5621": " afternoon", "5622": " shift", "5623": " diss", "5624": " depart", "5625": " ends", "5626": "essions", "5627": " turning", "5628": " bound", "5629": " films", "5630": " spring", "5631": " prospect", "5632": "ruption", "5633": "ket", "5634": " Charl", "5635": " mort", "5636": "life", "5637": " treated", "5638": " accident", "5639": ",[", "5640": " motiv", "5641": " listen", "5642": " seat", "5643": " Power", "5644": " combined", "5645": " construct", "5646": "Ind", "5647": " seriously", "5648": " privacy", "5649": "apping", "5650": " evening", "5651": "hered", "5652": "hy", "5653": " opportunities", "5654": "asp", "5655": " struggle", "5656": " 195", "5657": " panel", "5658": " enemy", "5659": " lots", "5660": " completed", "5661": " Daily", "5662": " visual", "5663": "His", "5664": "Phone", "5665": "pet", "5666": " talked", "5667": " cart", "5668": " hopes", "5669": "uts", "5670": " passing", "5671": "oral", "5672": " id", "5673": " apps", "5674": "osite", "5675": "05", "5676": "gent", "5677": "PD", "5678": " calcul", "5679": "Another", "5680": " widely", "5681": "ensions", "5682": " emergency", "5683": " Hol", "5684": "amm", "5685": " Show", "5686": " suit", "5687": " element", "5688": " ast", "5689": "anged", "5690": "SS", "5691": "ucks", "5692": "aled", "5693": " powers", "5694": "ato", "5695": " Rel", "5696": " BBC", "5697": " Olymp", "5698": " burn", "5699": "TV", "5700": " discl", "5701": "Pe", "5702": " plants", "5703": " flat", "5704": " Space", "5705": " liberal", "5706": "raud", "5707": "obe", "5708": " opposed", "5709": " sad", "5710": "Well", "5711": " proceed", "5712": "ompl", "5713": " copyright", "5714": " Project", "5715": "oking", "5716": " advance", "5717": " factor", "5718": " distance", "5719": " 2003", "5720": "ivered", "5721": " dismiss", "5722": "plom", "5723": " attempts", "5724": " tun", "5725": " Matt", "5726": "Am", "5727": " Road", "5728": "abilities", "5729": "sts", "5730": " IN", "5731": "ributed", "5732": " trouble", "5733": "unction", "5734": " hol", "5735": " collabor", "5736": " default", "5737": "idel", "5738": " Bet", "5739": " zone", "5740": " Jackson", "5741": " upgr", "5742": "ita", "5743": "rawn", "5744": "Cont", "5745": " reaction", "5746": " storm", "5747": " reporters", "5748": " Mem", "5749": " frust", "5750": "PR", "5751": "nell", "5752": " writes", "5753": "adow", "5754": "mosp", "5755": "mond", "5756": "aints", "5757": " typically", "5758": " Today", "5759": "lines", "5760": "respond", "5761": "UT", "5762": " pages", "5763": " instruct", "5764": "inian", "5765": "ternal", "5766": "eds", "5767": " reference", "5768": " grab", "5769": "zer", "5770": " package", "5771": " bodies", "5772": " matters", "5773": "free", "5774": "01", "5775": " denied", "5776": "care", "5777": "App", "5778": " quant", "5779": " disappoint", "5780": " sem", "5781": " explo", "5782": " NAS", "5783": " optim", "5784": "ache", "5785": " quiet", "5786": " entertain", "5787": " responded", "5788": " approved", "5789": " Turkey", "5790": " satisf", "5791": "aped", "5792": " broadcast", "5793": "esters", "5794": " institutions", "5795": " advert", "5796": "42", "5797": " stands", "5798": " Director", "5799": " sets", "5800": "estival", "5801": " elimin", "5802": "razy", "5803": "ga", "5804": "\u00c3\u00a4", "5805": "Rep", "5806": "host", "5807": " valid", "5808": " renew", "5809": " Ohio", "5810": "elly", "5811": " split", "5812": " severe", "5813": " William", "5814": " sac", "5815": " capable", "5816": " Penn", "5817": " 2001", "5818": " //", "5819": " pitch", "5820": "aniel", "5821": " caption", "5822": " loved", "5823": " technical", "5824": " giant", "5825": "pass", "5826": " tradition", "5827": "isters", "5828": " cann", "5829": "rant", "5830": " prompt", "5831": " bull", "5832": " confident", "5833": "uous", "5834": " confidence", "5835": "rum", "5836": "abin", "5837": " numerous", "5838": " reportedly", "5839": " Ma", "5840": " faces", "5841": "],", "5842": "writ", "5843": " weather", "5844": " fly", "5845": "rid", "5846": " transition", "5847": " 36", "5848": " System", "5849": " Afghanistan", "5850": " Squ", "5851": " creation", "5852": "De", "5853": " perspective", "5854": " unable", "5855": " forget", "5856": " Labour", "5857": " Yet", "5858": "astern", "5859": "employ", "5860": "oken", "5861": " Media", "5862": "angers", "5863": "II", "5864": "unte", "5865": " craft", "5866": " substant", "5867": " cooper", "5868": " violent", "5869": " suffered", "5870": "ilit", "5871": " coast", "5872": " mand", "5873": "ampion", "5874": "43", "5875": " pictures", "5876": " experiences", "5877": " approx", "5878": "abled", "5879": " route", "5880": "88", "5881": "sex", "5882": " flag", "5883": " advice", "5884": " Andrew", "5885": "usiness", "5886": " declared", "5887": " ordered", "5888": " Human", "5889": "razil", "5890": " crimes", "5891": " coff", "5892": "Se", "5893": " proud", "5894": "ishes", "5895": " reporting", "5896": " messages", "5897": " circumst", "5898": " findings", "5899": "Res", "5900": "ulations", "5901": " eval", "5902": " excell", "5903": "Over", "5904": " declined", "5905": " explains", "5906": " Lin", "5907": " Wal", "5908": " delay", "5909": " \\", "5910": " Follow", "5911": " newspaper", "5912": "ounded", "5913": " connected", "5914": "ilty", "5915": " shouldn", "5916": " mal", "5917": "evin", "5918": "oves", "5919": " ongoing", "5920": "can", "5921": " cloud", "5922": "dule", "5923": " movies", "5924": " picked", "5925": "ionally", "5926": "resents", "5927": "77", "5928": " admitted", "5929": " gra", "5930": " delivered", "5931": "During", "5932": " guns", "5933": " ML", "5934": " Scot", "5935": " walking", "5936": " agents", "5937": "called", "5938": "tion", "5939": " prin", "5940": " editor", "5941": " thoughts", "5942": " married", "5943": " Tra", "5944": " auth", "5945": " emails", "5946": " appropriate", "5947": "edd", "5948": " emphas", "5949": " Rod", "5950": "uations", "5951": " edge", "5952": " architect", "5953": " Grand", "5954": " leaves", "5955": " updates", "5956": " accompl", "5957": "OD", "5958": " gather", "5959": " forg", "5960": " Muslims", "5961": "ansas", "5962": " Wood", "5963": " quarterback", "5964": " session", "5965": "ooth", "5966": " pool", "5967": " Techn", "5968": " Science", "5969": "cos", "5970": " injured", "5971": " publicly", "5972": "ellow", "5973": " Sov", "5974": " statements", "5975": "arn", "5976": " perman", "5977": "arl", "5978": " legit", "5979": " confirm", "5980": "nergy", "5981": " Lake", "5982": " ourselves", "5983": "Other", "5984": " realize", "5985": " rot", "5986": " drivers", "5987": "MA", "5988": " Av", "5989": " Dou", "5990": "mates", "5991": ",\u00e2\u0080\u0099", "5992": " armed", "5993": "essor", "5994": " dial", "5995": "cons", "5996": "TA", "5997": " lawyer", "5998": "ourney", "5999": " rail", "6000": " readers", "6001": "reland", "6002": " contains", "6003": " argue", "6004": " Rev", "6005": " talent", "6006": " filled", "6007": " Sum", "6008": " allegations", "6009": " activists", "6010": " Christmas", "6011": " dynam", "6012": " 1980", "6013": " Michigan", "6014": "date", "6015": " Back", "6016": " Ron", "6017": " crack", "6018": " transform", "6019": "Tube", "6020": " Read", "6021": " Ill", "6022": " buildings", "6023": "long", "6024": " wear", "6025": "Many", "6026": " sam", "6027": " terrorist", "6028": " tree", "6029": " exercise", "6030": "enda", "6031": " label", "6032": " effectively", "6033": "Oh", "6034": " practices", "6035": " god", "6036": " subsequ", "6037": " Jul", "6038": " Sher", "6039": " flo", "6040": "uls", "6041": " fish", "6042": "TS", "6043": "ette", "6044": "enture", "6045": " shop", "6046": " examples", "6047": "41", "6048": " Hy", "6049": " patient", "6050": " Gen", "6051": " Seattle", "6052": " objects", "6053": " tech", "6054": " See", "6055": " secretary", "6056": "gia", "6057": "asure", "6058": " rain", "6059": "urning", "6060": " missed", "6061": " causes", "6062": "illy", "6063": " debut", "6064": " essentially", "6065": "66", "6066": " moral", "6067": "orders", "6068": "ador", "6069": "word", "6070": "acter", "6071": " Work", "6072": "def", "6073": "arters", "6074": " Ukraine", "6075": " centre", "6076": "amin", "6077": "hedule", "6078": "Follow", "6079": " Vict", "6080": " ID", "6081": " injuries", "6082": "icing", "6083": " Phot", "6084": " Stan", "6085": " motor", "6086": " iPhone", "6087": " artist", "6088": " client", "6089": " bond", "6090": " thinks", "6091": "iat", "6092": "aza", "6093": "orse", "6094": "ouston", "6095": " pure", "6096": " hell", "6097": "Although", "6098": " Saudi", "6099": " facts", "6100": "\u0082\u00ac", "6101": " desire", "6102": "agers", "6103": " ske", "6104": "orry", "6105": " linked", "6106": "\u00c3\u00ad", "6107": " governor", "6108": " materials", "6109": " performed", "6110": "Spe", "6111": " franch", "6112": "esome", "6113": "nan", "6114": " suc", "6115": " philosoph", "6116": " initially", "6117": " Sign", "6118": " necessarily", "6119": " Kim", "6120": " Bat", "6121": " Fer", "6122": " expansion", "6123": " scheduled", "6124": "water", "6125": "ERS", "6126": " warned", "6127": "iest", "6128": " diplom", "6129": " advanced", "6130": " explan", "6131": " ing", "6132": " vari", "6133": " everybody", "6134": " joint", "6135": " decre", "6136": " resolution", "6137": " increases", "6138": "enger", "6139": "Yes", "6140": " accepted", "6141": " incor", "6142": " myster", "6143": " faced", "6144": " van", "6145": " bare", "6146": "illance", "6147": " Mount", "6148": " announcement", "6149": " follows", "6150": " nations", "6151": " playoff", "6152": " Life", "6153": " abandon", "6154": " Second", "6155": " Id", "6156": " radical", "6157": " athlet", "6158": " neither", "6159": " yesterday", "6160": " datab", "6161": " nearby", "6162": " distribution", "6163": "otic", "6164": " applied", "6165": "irty", "6166": " magazine", "6167": "Most", "6168": "athan", "6169": "rich", "6170": " mir", "6171": " consequences", "6172": " doctor", "6173": "uy", "6174": " listed", "6175": " fort", "6176": " Columb", "6177": " atmosp", "6178": "American", "6179": " surprised", "6180": " offense", "6181": "Qu", "6182": "itors", "6183": " CNN", "6184": " RE", "6185": " spons", "6186": " begins", "6187": " Week", "6188": " threats", "6189": "sembly", "6190": " represents", "6191": " Jews", "6192": " GM", "6193": " Aff", "6194": " enh", "6195": " moves", "6196": " remark", "6197": " TO", "6198": " songs", "6199": " pra", "6200": "kay", "6201": " chart", "6202": " behavi", "6203": " Dan", "6204": " ride", "6205": " adds", "6206": " withd", "6207": "Can", "6208": "\u00c3\u0082", "6209": " improved", "6210": " phen", "6211": " Blue", "6212": " bot", "6213": " warm", "6214": " af", "6215": " alcohol", "6216": "rip", "6217": " AT", "6218": " output", "6219": "law", "6220": " flood", "6221": " Develop", "6222": " Hen", "6223": "whel", "6224": "edy", "6225": " shots", "6226": " fill", "6227": " Vol", "6228": " alt", "6229": " stood", "6230": " brings", "6231": " pushed", "6232": " guilty", "6233": " Romney", "6234": " subscrib", "6235": "85", "6236": " entry", "6237": "ocratic", "6238": " Brazil", "6239": " democracy", "6240": " boys", "6241": "burg", "6242": " 33", "6243": " row", "6244": " config", "6245": " restaurant", "6246": " NBA", "6247": " lawsuit", "6248": " Dev", "6249": " Ireland", "6250": "acle", "6251": " manufacture", "6252": " receiving", "6253": " rein", "6254": " Barack", "6255": "Then", "6256": " trib", "6257": " totally", "6258": " Only", "6259": " discussed", "6260": " sought", "6261": " rising", "6262": " entered", "6263": " ISIS", "6264": " Board", "6265": " 300", "6266": " consistent", "6267": " historical", "6268": "twitter", "6269": "ideo", "6270": " storage", "6271": " correspond", "6272": " plane", "6273": " combination", "6274": " scored", "6275": " input", "6276": " symbol", "6277": " bright", "6278": " button", "6279": "irds", "6280": " succeed", "6281": "stood", "6282": " creative", "6283": " investors", "6284": " square", "6285": " articles", "6286": " 2002", "6287": " island", "6288": " deaths", "6289": " scr", "6290": " functions", "6291": " networks", "6292": " classes", "6293": " unlikely", "6294": "alty", "6295": " Prem", "6296": " heads", "6297": " boss", "6298": "ician", "6299": " native", "6300": "icious", "6301": " lie", "6302": " sav", "6303": " Lib", "6304": " roughly", "6305": " consumer", "6306": " Str", "6307": " Whe", "6308": " Walk", "6309": "fortunately", "6310": " Ms", "6311": " string", "6312": " Maybe", "6313": " heavily", "6314": " Another", "6315": " fairly", "6316": " temperature", "6317": "arden", "6318": " kit", "6319": " existence", "6320": " Its", "6321": " Asia", "6322": " contest", "6323": " plot", "6324": "issions", "6325": " Cub", "6326": " resident", "6327": "usal", "6328": " targets", "6329": " Bob", "6330": " resc", "6331": " Korean", "6332": "ican", "6333": "duc", "6334": " lock", "6335": " younger", "6336": " colleagues", "6337": "',", "6338": " Swed", "6339": "PU", "6340": "abb", "6341": " library", "6342": "\u00c3\u00b6", "6343": " rally", "6344": " parliament", "6345": " protests", "6346": " anywhere", "6347": "oked", "6348": " Sports", "6349": " Sky", "6350": " bike", "6351": "zona", "6352": " breaking", "6353": " sym", "6354": " stores", "6355": " expression", "6356": " waste", "6357": " chain", "6358": " blow", "6359": " warning", "6360": " importance", "6361": " defined", "6362": " buying", "6363": " manage", "6364": " prohib", "6365": "ii", "6366": " classic", "6367": " cere", "6368": " snow", "6369": " adults", "6370": " illust", "6371": " Each", "6372": "See", "6373": "Ob", "6374": " marketing", "6375": " links", "6376": "\u00c3\u00b3", "6377": "born", "6378": " shif", "6379": "iques", "6380": "andal", "6381": " Club", "6382": " tow", "6383": " Hist", "6384": " fraud", "6385": "OC", "6386": "dis", "6387": " facility", "6388": "ollywood", "6389": "erences", "6390": " hardware", "6391": " schol", "6392": " allegedly", "6393": " 37", "6394": " regulations", "6395": "pret", "6396": " doctors", "6397": " bon", "6398": " Colorado", "6399": " currency", "6400": " household", "6401": " replaced", "6402": " essential", "6403": " Ram", "6404": "agan", "6405": "Man", "6406": " empt", "6407": "opy", "6408": "onna", "6409": " somewhat", "6410": " Div", "6411": "press", "6412": "86", "6413": " nav", "6414": "power", "6415": " favour", "6416": " promise", "6417": " DC", "6418": " Boy", "6419": " laugh", "6420": "Pol", "6421": " Rights", "6422": "ena", "6423": " holds", "6424": " opposite", "6425": "ocket", "6426": " tom", "6427": "\u00d1\u0081", "6428": " moments", "6429": "west", "6430": " hat", "6431": "tering", "6432": " opponent", "6433": " bug", "6434": " Far", "6435": "cho", "6436": " campus", "6437": " acts", "6438": " rum", "6439": "etroit", "6440": " versions", "6441": " motion", "6442": " metal", "6443": "hips", "6444": " evolution", "6445": "ometimes", "6446": " vice", "6447": " relevant", "6448": " sees", "6449": " Image", "6450": " bag", "6451": " industrial", "6452": " zero", "6453": "IR", "6454": " sick", "6455": " downt", "6456": "oma", "6457": " closely", "6458": "hetic", "6459": " emotional", "6460": "chen", "6461": "game", "6462": "IF", "6463": " YouTube", "6464": " Year", "6465": " fewer", "6466": " division", "6467": "olve", "6468": " adm", "6469": "va", "6470": " harder", "6471": " customer", "6472": " hoping", "6473": "ologist", "6474": " Brook", "6475": "Donald", "6476": " Valley", "6477": "En", "6478": " hur", "6479": " mechanism", "6480": "ittle", "6481": "inem", "6482": " Gra", "6483": " Houston", "6484": "ml", "6485": " Elect", "6486": " returns", "6487": "NC", "6488": "atell", "6489": " volunte", "6490": " participants", "6491": " extent", "6492": " intention", "6493": "esc", "6494": "alian", "6495": "ellect", "6496": " excellent", "6497": " Soviet", "6498": " acknowled", "6499": " syn", "6500": "ulous", "6501": "oming", "6502": " Mot", "6503": " batt", "6504": " Games", "6505": " squad", "6506": " circumstances", "6507": "pan", "6508": " fashion", "6509": " isol", "6510": "\u00c3\u00bc", "6511": "otal", "6512": "greg", "6513": " immediate", "6514": " Eric", "6515": " suffering", "6516": " Watch", "6517": "str", "6518": " lies", "6519": " tiny", "6520": " authors", "6521": " 38", "6522": " grown", "6523": "iger", "6524": " Gar", "6525": "ora", "6526": "po", "6527": "efully", "6528": " immigrants", "6529": "\u00c3\u0083", "6530": "print", "6531": " kinds", "6532": "utch", "6533": " 49", "6534": " Die", "6535": " cheap", "6536": " mine", "6537": " detailed", "6538": " Hel", "6539": "ordan", "6540": "name", "6541": " featured", "6542": "iki", "6543": "ayers", "6544": " meat", "6545": " Sar", "6546": " unus", "6547": " Aut", "6548": " IP", "6549": " competitive", "6550": " describe", "6551": " formed", "6552": " Home", "6553": "nic", "6554": "friend", "6555": "certain", "6556": " carrying", "6557": " tournament", "6558": " trick", "6559": "nam", "6560": " relationships", "6561": " fundamental", "6562": "kel", "6563": " wave", "6564": " cycle", "6565": " crazy", "6566": " Cy", "6567": " signing", "6568": " Way", "6569": " termin", "6570": " guide", "6571": " wins", "6572": " Catholic", "6573": " earned", "6574": " decline", "6575": " regional", "6576": "ensus", "6577": "style", "6578": " embr", "6579": " strange", "6580": " Palestinian", "6581": " Jesus", "6582": " Ann", "6583": "bar", "6584": " Long", "6585": " ancient", "6586": " frequently", "6587": " acting", "6588": " Putin", "6589": " manner", "6590": " efficient", "6591": "rome", "6592": " pushing", "6593": " CIA", "6594": " comfortable", "6595": " Card", "6596": " pip", "6597": " Er", "6598": "ORE", "6599": "Per", "6600": " sharing", "6601": " wire", "6602": " skill", "6603": " Econom", "6604": "ockey", "6605": "chers", "6606": " instru", "6607": " Ell", "6608": " owned", "6609": "awa", "6610": " commitment", "6611": " alongside", "6612": " OF", "6613": "uated", "6614": " Lord", "6615": "anes", "6616": " Davis", "6617": "rison", "6618": " controversial", "6619": " artists", "6620": " referred", "6621": "weight", "6622": " egg", "6623": " mouth", "6624": " repeatedly", "6625": "06", "6626": " 48", "6627": " Top", "6628": "\u00ef\u00bf", "6629": " 34", "6630": "FP", "6631": " attempted", "6632": " femin", "6633": "\u00d0\u00be\u00d0", "6634": "umber", "6635": " updated", "6636": "foot", "6637": " cert", "6638": "ua", "6639": " pregn", "6640": " Old", "6641": " schedule", "6642": "xy", "6643": " PS", "6644": "amily", "6645": "adel", "6646": " dedicated", "6647": " AL", "6648": " sentence", "6649": "vin", "6650": " upcoming", "6651": " Right", "6652": " NY", "6653": "bel", "6654": " Down", "6655": " Di", "6656": " column", "6657": "hus", "6658": " depth", "6659": "09", "6660": " pled", "6661": " virtual", "6662": "uable", "6663": " journey", "6664": " struck", "6665": "\u00d1\u0080", "6666": " desk", "6667": " studio", "6668": " realized", "6669": " Energy", "6670": "Despite", "6671": "ceived", "6672": "%)", "6673": "ographic", "6674": "ugh", "6675": " medic", "6676": "DS", "6677": "iami", "6678": " serving", "6679": " walked", "6680": "rive", "6681": "iveness", "6682": " king", "6683": " ring", "6684": "ko", "6685": " reput", "6686": "you", "6687": " urban", "6688": "phy", "6689": " Cle", "6690": " Charles", "6691": " Wild", "6692": " targeted", "6693": " channel", "6694": " assets", "6695": "luding", "6696": " tort", "6697": " inspired", "6698": " hotel", "6699": " Arizona", "6700": "08", "6701": " posts", "6702": " newslet", "6703": "Like", "6704": "Two", "6705": " Supp", "6706": " universe", "6707": "07", "6708": " agenda", "6709": " causing", "6710": " watched", "6711": " suicide", "6712": " stream", "6713": " overwhel", "6714": " Py", "6715": " Men", "6716": " usual", "6717": " surveillance", "6718": "mem", "6719": " intent", "6720": "sole", "6721": "People", "6722": " liqu", "6723": " sister", "6724": " opponents", "6725": " chairman", "6726": " du", "6727": " Wars", "6728": " Cruz", "6729": " mainstream", "6730": " latter", "6731": " hall", "6732": " surrounding", "6733": " folks", "6734": " knowing", "6735": " orders", "6736": " Inf", "6737": "omin", "6738": "igg", "6739": " remote", "6740": " 75", "6741": " sand", "6742": " literally", "6743": " Java", "6744": " observed", "6745": " Again", "6746": " subsid", "6747": "gor", "6748": "Fr", "6749": " Defense", "6750": " infl", "6751": "obb", "6752": " Van", "6753": " approval", "6754": "acc", "6755": "iments", "6756": " basket", "6757": "rence", "6758": " teachers", "6759": "azi", "6760": "avor", "6761": "izz", "6762": " winter", "6763": "iciency", "6764": "alle", "6765": " exciting", "6766": "aze", "6767": "aylor", "6768": " Tal", "6769": " format", "6770": "boy", "6771": " congress", "6772": " protected", "6773": "iro", "6774": "ati", "6775": " noticed", "6776": " simpl", "6777": " dealing", "6778": " Young", "6779": "rations", "6780": " Child", "6781": " precise", "6782": "67", "6783": "xual", "6784": " deeply", "6785": " communication", "6786": " gang", "6787": " sending", "6788": "ipl", "6789": " forth", "6790": " Jr", "6791": " fasc", "6792": " battery", "6793": " wal", "6794": "mun", "6795": " sky", "6796": " narr", "6797": " fixed", "6798": "post", "6799": " aside", "6800": " requirements", "6801": "abis", "6802": "ums", "6803": "Int", "6804": " properties", "6805": "rors", "6806": " alive", "6807": " narrow", "6808": " wake", "6809": "allas", "6810": " passion", "6811": " Arch", "6812": "onymous", "6813": " eating", "6814": "Or", "6815": "ensity", "6816": " mistake", "6817": "woman", "6818": " explore", "6819": " coffee", "6820": " 1970", "6821": " Pan", "6822": " rape", "6823": " volume", "6824": " promised", "6825": " diet", "6826": "acking", "6827": " risks", "6828": " exhib", "6829": " Polit", "6830": " Fort", "6831": " sweet", "6832": "May", "6833": "\u00e2\u0080\u0099.", "6834": " Enter", "6835": " Wat", "6836": " neut", "6837": " involving", "6838": " wage", "6839": " selection", "6840": " Max", "6841": " tested", "6842": "ether", "6843": " flu", "6844": "ulture", "6845": " defeat", "6846": " northern", "6847": " reward", "6848": " welcome", "6849": " Cast", "6850": " extended", "6851": " puts", "6852": " territory", "6853": " phenomen", "6854": " unemploy", "6855": " refugees", "6856": " sample", "6857": " height", "6858": " approximately", "6859": " Kevin", "6860": " blame", "6861": " Brad", "6862": " anyway", "6863": "59", "6864": " Detroit", "6865": " destroyed", "6866": "obile", "6867": " sho", "6868": " impressive", "6869": " Stephen", "6870": "asks", "6871": " proof", "6872": " gap", "6873": " dry", "6874": "\u00ef\u00bf\u00bd", "6875": " crash", "6876": " unknown", "6877": " locations", "6878": " selected", "6879": "apse", "6880": " west", "6881": "anges", "6882": "gery", "6883": "stone", "6884": " Fil", "6885": " attacked", "6886": "aire", "6887": " maximum", "6888": " Miller", "6889": " Wilson", "6890": " Tit", "6891": " promote", "6892": " shel", "6893": "aser", "6894": " merely", "6895": " franchise", "6896": "arry", "6897": "04", "6898": "lv", "6899": " requests", "6900": " retire", "6901": " suddenly", "6902": " slowly", "6903": " protesters", "6904": " disag", "6905": " teacher", "6906": "ixt", "6907": " typical", "6908": "ogan", "6909": "dro", "6910": " Women", "6911": " Ins", "6912": "ingu", "6913": " conver", "6914": "list", "6915": " chose", "6916": "ao", "6917": " Camer", "6918": " Class", "6919": " Lu", "6920": " matches", "6921": " prote", "6922": " license", "6923": " properly", "6924": " assume", "6925": "oration", "6926": " discover", "6927": " wid", "6928": " PR", "6929": "Rel", "6930": " Mic", "6931": " worried", "6932": " moder", "6933": "fire", "6934": " abortion", "6935": "owered", "6936": " allies", "6937": " oblig", "6938": " terrorism", "6939": " supports", "6940": " \u00ce", "6941": "uilding", "6942": "\u00c3\u0083\u00c3\u0082", "6943": "inson", "6944": "verty", "6945": " arguments", "6946": " adapt", "6947": " theme", "6948": " confront", "6949": " facilities", "6950": " sustain", "6951": "gender", "6952": " east", "6953": " pal", "6954": " recognize", "6955": "igure", "6956": " fuck", "6957": "\u00c3\u0082\u00c3\u0083\u00c3\u0082", "6958": "\u00c3\u0083\u00c3\u0082\u00c3\u0083", "6959": "lies", "6960": " equival", "6961": " obtained", "6962": " poverty", "6963": " rub", "6964": " Italy", "6965": " nomine", "6966": "03", "6967": " deals", "6968": " fees", "6969": "alo", "6970": "itarian", "6971": "osis", "6972": " Hollywood", "6973": " understood", "6974": " controlled", "6975": "VER", "6976": " Best", "6977": " topic", "6978": " Dam", "6979": " critics", "6980": " Society", "6981": " Agency", "6982": "axy", "6983": " Ford", "6984": " sole", "6985": " Jersey", "6986": "arity", "6987": " village", "6988": "han", "6989": " diagn", "6990": " Administ", "6991": "raid", "6992": " likes", "6993": "celer", "6994": " Four", "6995": "sters", "6996": "68", "6997": " evil", "6998": "Te", "6999": " punish", "7000": " dress", "7001": "cript", "7002": " Georgia", "7003": " bunch", "7004": " Company", "7005": " journalists", "7006": "John", "7007": " exposed", "7008": " ped", "7009": " regions", "7010": "redit", "7011": "ocation", "7012": " communications", "7013": " scheme", "7014": " transp", "7015": " stim", "7016": " limits", "7017": " somehow", "7018": " strongly", "7019": " honor", "7020": " drag", "7021": "aug", "7022": " resistance", "7023": "lls", "7024": " champion", "7025": " Carl", "7026": " Labor", "7027": " constant", "7028": " phase", "7029": " NASA", "7030": "asts", "7031": "pool", "7032": " profit", "7033": " truck", "7034": " condem", "7035": " escape", "7036": " personally", "7037": " Night", "7038": " Dun", "7039": "rimination", "7040": " Land", "7041": " bid", "7042": " NHL", "7043": " Stand", "7044": " vacc", "7045": " deck", "7046": "\u00d0\u00bd", "7047": "nesota", "7048": "iform", "7049": " falling", "7050": "mo", "7051": "GBT", "7052": " Network", "7053": " somewhere", "7054": "cers", "7055": " employee", "7056": " harass", "7057": "ems", "7058": "ads", "7059": "CA", "7060": " bear", "7061": " CD", "7062": "iner", "7063": " comparison", "7064": "orted", "7065": "ciples", "7066": " polls", "7067": "owa", "7068": " inqu", "7069": " Love", "7070": "pected", "7071": " southern", "7072": " decent", "7073": "oric", "7074": "cow", "7075": " Spanish", "7076": " encourage", "7077": " emissions", "7078": " 39", "7079": " View", "7080": " Cam", "7081": "enders", "7082": " empty", "7083": " Miami", "7084": " hits", "7085": "oster", "7086": " definition", "7087": " Kn", "7088": " pic", "7089": "wan", "7090": " directed", "7091": "pes", "7092": " flex", "7093": "zens", "7094": " Ok", "7095": "57", "7096": " meetings", "7097": " End", "7098": " Bell", "7099": " comprom", "7100": " winner", "7101": "intend", "7102": "aun", "7103": "icken", "7104": " gotten", "7105": " Daniel", "7106": " Turk", "7107": " electricity", "7108": " chosen", "7109": " officially", "7110": " bench", "7111": " stretch", "7112": " database", "7113": " Despite", "7114": " spin", "7115": " intellect", "7116": "igation", "7117": " stronger", "7118": " deleg", "7119": " purposes", "7120": " DNA", "7121": "Com", "7122": " cutting", "7123": " Turn", "7124": " fold", "7125": "rary", "7126": " extensive", "7127": " amounts", "7128": " desper", "7129": " trees", "7130": " anx", "7131": " ideal", "7132": " Asian", "7133": " thread", "7134": " fifth", "7135": "\u0088\u0092", "7136": "UR", "7137": " goods", "7138": " colon", "7139": " developer", "7140": " claiming", "7141": "unning", "7142": "Any", "7143": " retain", "7144": " soul", "7145": " captured", "7146": " Though", "7147": " finds", "7148": " driven", "7149": " payments", "7150": "asters", "7151": "ras", "7152": "CS", "7153": " ties", "7154": " Jordan", "7155": " reasonable", "7156": "olt", "7157": " dogs", "7158": "\u00e2\u0096", "7159": " somebody", "7160": " ending", "7161": "02", "7162": " Nations", "7163": " choices", "7164": " ble", "7165": " pod", "7166": " seats", "7167": " Services", "7168": " Thank", "7169": " engage", "7170": " drawn", "7171": " sight", "7172": " param", "7173": " Dar", "7174": "CE", "7175": " threatened", "7176": " ruled", "7177": " Attorney", "7178": "eping", "7179": " Irish", "7180": " Sea", "7181": " trading", "7182": "owed", "7183": " primarily", "7184": "ura", "7185": " aspects", "7186": " fighters", "7187": "ML", "7188": " answers", "7189": " perfectly", "7190": "irms", "7191": " incl", "7192": " Academ", "7193": " rival", "7194": " parking", "7195": " rejected", "7196": " Gall", "7197": " constantly", "7198": "Add", "7199": "fast", "7200": " Hun", "7201": " payment", "7202": " Cat", "7203": " distinct", "7204": " flying", "7205": " Ut", "7206": " rig", "7207": " technologies", "7208": "mod", "7209": " Real", "7210": "</", "7211": " components", "7212": "Police", "7213": " admit", "7214": " Scotland", "7215": " elsewhere", "7216": " Dark", "7217": "dit", "7218": " constit", "7219": " anymore", "7220": "lder", "7221": " icon", "7222": " fields", "7223": " estimates", "7224": "EW", "7225": "sea", "7226": " solutions", "7227": " resulting", "7228": "ez", "7229": "78", "7230": " Bru", "7231": "urb", "7232": " awesome", "7233": " encoun", "7234": " province", "7235": "sm", "7236": " worldwide", "7237": " actor", "7238": " regularly", "7239": " Moore", "7240": " courts", "7241": " narrative", "7242": "Once", "7243": " boot", "7244": " enemies", "7245": " mixed", "7246": "300", "7247": "regon", "7248": " OS", "7249": " Disney", "7250": "icer", "7251": " houses", "7252": " nobody", "7253": " Sk", "7254": "inations", "7255": " controls", "7256": " Water", "7257": " letters", "7258": "apes", "7259": "agram", "7260": "imp", "7261": "iana", "7262": " 42", "7263": " mayor", "7264": " loan", "7265": " murd", "7266": " outcome", "7267": " MS", "7268": " contem", "7269": "sell", "7270": "Sec", "7271": "vy", "7272": "odd", "7273": "ship", "7274": " Light", "7275": "onic", "7276": "isan", "7277": " apartment", "7278": " Steven", "7279": " coalition", "7280": " contributed", "7281": " Bas", "7282": " tank", "7283": " concluded", "7284": " Adam", "7285": " Tw", "7286": " exists", "7287": " founder", "7288": " Brian", "7289": "earing", "7290": " Lew", "7291": " atmosphere", "7292": " profile", "7293": " brew", "7294": " situations", "7295": " Championship", "7296": " Author", "7297": "rates", "7298": " incredible", "7299": " Constitution", "7300": " signal", "7301": "otes", "7302": " Rog", "7303": " accurate", "7304": "ker", "7305": " Victor", "7306": "otten", "7307": " unp", "7308": " Where", "7309": " Southern", "7310": ".\"[", "7311": " employment", "7312": " clients", "7313": "Dr", "7314": " keeps", "7315": "inity", "7316": " informed", "7317": " continuing", "7318": " baseball", "7319": " generate", "7320": " ticket", "7321": " conven", "7322": "Also", "7323": " Conf", "7324": " weird", "7325": " tied", "7326": "lock", "7327": "adelph", "7328": " category", "7329": " infect", "7330": "ilarly", "7331": "acked", "7332": " angry", "7333": " Organ", "7334": " routine", "7335": "aron", "7336": " kil", "7337": " raising", "7338": "ifer", "7339": " machines", "7340": " registered", "7341": "there", "7342": " proved", "7343": " demands", "7344": " gaming", "7345": " Italian", "7346": " incredibly", "7347": " crucial", "7348": " stuck", "7349": " Civil", "7350": " Dallas", "7351": " terrible", "7352": "MP", "7353": "cr", "7354": " feedback", "7355": " upper", "7356": " plastic", "7357": " imper", "7358": " newly", "7359": " Joseph", "7360": " consumption", "7361": " dozen", "7362": " enthus", "7363": " estate", "7364": "ali", "7365": "rage", "7366": "56", "7367": " innoc", "7368": " manip", "7369": " Tem", "7370": " conscious", "7371": " bills", "7372": " Cross", "7373": " Spain", "7374": "ifications", "7375": "Today", "7376": " writers", "7377": " excess", "7378": "inding", "7379": " aggressive", "7380": " reporter", "7381": " compens", "7382": " returning", "7383": " stead", "7384": " programming", "7385": " Thanks", "7386": " represented", "7387": " conclusion", "7388": "98", "7389": " rus", "7390": " Bowl", "7391": "MS", "7392": " AR", "7393": " origin", "7394": " assistant", "7395": "adelphia", "7396": " roster", "7397": " Minnesota", "7398": " organized", "7399": "ria", "7400": " penalty", "7401": " drinking", "7402": "lers", "7403": " paint", "7404": " satell", "7405": " gro", "7406": " Program", "7407": " capture", "7408": " conspir", "7409": " interpret", "7410": " explanation", "7411": "iscal", "7412": "eme", "7413": " county", "7414": "iscons", "7415": "essed", "7416": "mont", "7417": " %", "7418": "anny", "7419": "gorith", "7420": "emen", "7421": "isconsin", "7422": " assistance", "7423": " Roman", "7424": "58", "7425": " complaint", "7426": "ima", "7427": " ru", "7428": " nut", "7429": " magic", "7430": " tall", "7431": " Oper", "7432": " granted", "7433": "Because", "7434": " Contin", "7435": "star", "7436": "LA", "7437": "Off", "7438": " Parliament", "7439": " complicated", "7440": " audio", "7441": " chances", "7442": " extract", "7443": "bal", "7444": "rypt", "7445": "era", "7446": " Gi", "7447": " 1999", "7448": " hel", "7449": " Educ", "7450": " shares", "7451": " successfully", "7452": "esy", "7453": " IT", "7454": " pilot", "7455": "zy", "7456": " Ep", "7457": " Hot", "7458": " myth", "7459": " 00", "7460": " recovery", "7461": " Test", "7462": " techniques", "7463": " iron", "7464": " Care", "7465": " Zeal", "7466": " SC", "7467": " scenes", "7468": " veteran", "7469": " Fre", "7470": " Win", "7471": " ($", "7472": " degrees", "7473": "actions", "7474": " sympt", "7475": "thew", "7476": " lawmakers", "7477": "ked", "7478": " western", "7479": " operate", "7480": " ads", "7481": "rating", "7482": " habit", "7483": " aimed", "7484": "Inst", "7485": "anchester", "7486": " phr", "7487": "rep", "7488": "rete", "7489": " taste", "7490": "idency", "7491": " engaged", "7492": " privile", "7493": " 55", "7494": " rating", "7495": " teaching", "7496": " academic", "7497": " Os", "7498": " therap", "7499": " passes", "7500": " dollar", "7501": "hent", "7502": " automatically", "7503": "itar", "7504": " Pacific", "7505": " monit", "7506": " blocks", "7507": "abama", "7508": " attended", "7509": " permanent", "7510": " survive", "7511": " anticip", "7512": " extrem", "7513": " enable", "7514": " Look", "7515": " Foreign", "7516": "chain", "7517": "%.", "7518": " marked", "7519": "itals", "7520": " hidden", "7521": " accomp", "7522": " titles", "7523": " Senator", "7524": " NBC", "7525": " taught", "7526": " Linux", "7527": " bom", "7528": "uan", "7529": " index", "7530": "everal", "7531": " elite", "7532": "ibilities", "7533": "from", "7534": " lawyers", "7535": " depending", "7536": " valuable", "7537": " installed", "7538": " championship", "7539": " root", "7540": " compre", "7541": " Bull", "7542": " downtown", "7543": "aed", "7544": "mal", "7545": " equivalent", "7546": " solve", "7547": "rific", "7548": " duty", "7549": " Special", "7550": " Business", "7551": " 64", "7552": " pace", "7553": "HS", "7554": " reputation", "7555": " uncertain", "7556": " phones", "7557": "uine", "7558": " overse", "7559": " Taylor", "7560": " personnel", "7561": " pin", "7562": "reams", "7563": "aturally", "7564": " sufficient", "7565": " visited", "7566": " warming", "7567": " Sn", "7568": " principles", "7569": " vulnerable", "7570": " enjoyed", "7571": " fake", "7572": " Nick", "7573": " advis", "7574": " negotiations", "7575": "inder", "7576": " generated", "7577": " exposure", "7578": " recording", "7579": "bro", "7580": " collected", "7581": " regardless", "7582": " dict", "7583": "EA", "7584": " elev", "7585": " bitcoin", "7586": "\u00e3\u0080", "7587": "active", "7588": " Kelly", "7589": " Anth", "7590": " cup", "7591": " patterns", "7592": "Getty", "7593": " Take", "7594": "))", "7595": " Avenue", "7596": " Josh", "7597": " disaster", "7598": " cable", "7599": " 65", "7600": " chat", "7601": " worker", "7602": " mainly", "7603": " racial", "7604": "quarters", "7605": " Coast", "7606": " Viet", "7607": "month", "7608": " pounds", "7609": " 150", "7610": " Call", "7611": " portion", "7612": " afraid", "7613": " inspir", "7614": " Ah", "7615": " bes", "7616": " defence", "7617": " Eastern", "7618": " Tony", "7619": " tracks", "7620": " busy", "7621": " grant", "7622": " shit", "7623": " intense", "7624": " Series", "7625": " LGBT", "7626": "orne", "7627": " Still", "7628": "mann", "7629": "athy", "7630": " funny", "7631": " apolog", "7632": " surgery", "7633": " Moscow", "7634": " Coll", "7635": " possession", "7636": " prominent", "7637": " Mars", "7638": " comic", "7639": " Ger", "7640": "ashes", "7641": "97", "7642": "ules", "7643": " Ray", "7644": " thin", "7645": " engineering", "7646": " troub", "7647": " Kurd", "7648": "this", "7649": " processes", "7650": " Nation", "7651": "fall", "7652": " Kent", "7653": " Come", "7654": " entit", "7655": " \u00e2\u0080\u0099", "7656": " unusual", "7657": "raph", "7658": "etary", "7659": " describes", "7660": "da", "7661": "world", "7662": "96", "7663": " resulted", "7664": " dim", "7665": " emerged", "7666": " taxp", "7667": " gall", "7668": "iler", "7669": " 400", "7670": " propag", "7671": " Iowa", "7672": " Oregon", "7673": " coordin", "7674": " corruption", "7675": " stations", "7676": " Invest", "7677": "ye", "7678": " fought", "7679": " AD", "7680": " brut", "7681": " extension", "7682": "ref", "7683": " blind", "7684": " adopted", "7685": "prise", "7686": " compete", "7687": " recru", "7688": " Zealand", "7689": " hadn", "7690": "Pr", "7691": " mail", "7692": " everywhere", "7693": " Balt", "7694": " crypt", "7695": "Rec", "7696": "Col", "7697": "Mean", "7698": "herent", "7699": "icate", "7700": " Ali", "7701": " contracts", "7702": "front", "7703": " Lo", "7704": " neuro", "7705": " Dead", "7706": " Rick", "7707": " feelings", "7708": " firms", "7709": "idelines", "7710": "\u00e2\u0080\u0099,", "7711": " minority", "7712": " spr", "7713": "cles", "7714": "HA", "7715": " advertising", "7716": " rarely", "7717": " discipl", "7718": "making", "7719": " Northern", "7720": " sanctions", "7721": " Veg", "7722": "scape", "7723": " Philadelphia", "7724": "upid", "7725": " cameras", "7726": " explicit", "7727": " strict", "7728": "viously", "7729": "log", "7730": " enorm", "7731": " finance", "7732": "gun", "7733": " cited", "7734": "ifies", "7735": " Before", "7736": " shortly", "7737": "tes", "7738": "UL", "7739": " Policy", "7740": " expectations", "7741": " implementation", "7742": "ogen", "7743": " recip", "7744": "cling", "7745": " Greek", "7746": " thick", "7747": " thousand", "7748": "antic", "7749": " Mu", "7750": "istent", "7751": " loud", "7752": " affili", "7753": "urrent", "7754": "orough", "7755": " Navy", "7756": " inev", "7757": "rell", "7758": "cus", "7759": " photograph", "7760": " medium", "7761": "azz", "7762": " Hom", "7763": " Wisconsin", "7764": " scenario", "7765": " Food", "7766": " Live", "7767": " sup", "7768": "ilton", "7769": " plug", "7770": " veget", "7771": " ho", "7772": " visible", "7773": "LC", "7774": " lights", "7775": " creates", "7776": " priority", "7777": " ven", "7778": " bridge", "7779": "eland", "7780": " obst", "7781": "inking", "7782": "ATE", "7783": " agric", "7784": " permission", "7785": " Foot", "7786": " algorith", "7787": "izon", "7788": "Co", "7789": "elect", "7790": " participate", "7791": "aska", "7792": " wing", "7793": "who", "7794": "asion", "7795": " browser", "7796": " Global", "7797": " tag", "7798": " Ol", "7799": " Has", "7800": " mel", "7801": " acceler", "7802": "###", "7803": " dozens", "7804": " Kingdom", "7805": " historic", "7806": " computers", "7807": " laid", "7808": " basketball", "7809": "een", "7810": " losses", "7811": "text", "7812": " Saf", "7813": " Ash", "7814": "ogether", "7815": " unw", "7816": "::", "7817": " tor", "7818": " Amendment", "7819": "Mar", "7820": " strikes", "7821": " principle", "7822": " Development", "7823": " formal", "7824": "EP", "7825": "igen", "7826": " scoring", "7827": "76", "7828": "obs", "7829": "athered", "7830": " 44", "7831": " counsel", "7832": "found", "7833": "++", "7834": " shock", "7835": " wonderful", "7836": " SP", "7837": " behalf", "7838": "abs", "7839": " uncom", "7840": "profit", "7841": "enth", "7842": " interface", "7843": " establishment", "7844": " toler", "7845": " Henry", "7846": " Greg", "7847": "amber", "7848": "car", "7849": " Major", "7850": " Thus", "7851": "jo", "7852": "Us", "7853": " gained", "7854": " fee", "7855": "lete", "7856": " founded", "7857": "etime", "7858": " foundation", "7859": "she", "7860": " ESP", "7861": "ilipp", "7862": " clubs", "7863": " cannabis", "7864": " ju", "7865": "54", "7866": "52", "7867": " airport", "7868": " Key", "7869": "aus", "7870": "ystem", "7871": " borrow", "7872": "weet", "7873": "olis", "7874": "BO", "7875": " manufacturing", "7876": " rely", "7877": " Hit", "7878": " Pay", "7879": "uer", "7880": " Alabama", "7881": " genuine", "7882": " Royal", "7883": "rators", "7884": "Before", "7885": " component", "7886": " ridic", "7887": "osexual", "7888": " wheel", "7889": "rative", "7890": " Oak", "7891": " journalist", "7892": " relief", "7893": " saved", "7894": "bell", "7895": "51", "7896": " hole", "7897": " yield", "7898": " headed", "7899": " cyber", "7900": " Moh", "7901": "ependent", "7902": " gift", "7903": " fault", "7904": " withdraw", "7905": "Ne", "7906": " indicate", "7907": " drawing", "7908": " uniform", "7909": "umer", "7910": " Rand", "7911": "arlier", "7912": " stable", "7913": " ships", "7914": " ->", "7915": " banned", "7916": " Mid", "7917": " footage", "7918": "Meanwhile", "7919": " doors", "7920": "rous", "7921": "lan", "7922": " recognized", "7923": " 1960", "7924": " containing", "7925": "pread", "7926": "400", "7927": " FC", "7928": " Vis", "7929": " river", "7930": "mes", "7931": " struggling", "7932": "ami", "7933": "Sub", "7934": "ba", "7935": " spark", "7936": " Academy", "7937": " walls", "7938": " achieved", "7939": "opher", "7940": "ounced", "7941": " neighb", "7942": " plate", "7943": " edition", "7944": " HT", "7945": "portion", "7946": "mate", "7947": " movements", "7948": " deliber", "7949": "uce", "7950": "teen", "7951": "Post", "7952": " sharp", "7953": " AS", "7954": " Snow", "7955": "ulating", "7956": " stab", "7957": " Three", "7958": " episodes", "7959": " neutral", "7960": " Premier", "7961": " Ret", "7962": " Fund", "7963": " exception", "7964": "etts", "7965": " producer", "7966": " Fred", "7967": " destruction", "7968": " 1998", "7969": "oured", "7970": " beliefs", "7971": " 47", "7972": " Review", "7973": " legend", "7974": " pump", "7975": " McG", "7976": " backed", "7977": " liked", "7978": " hired", "7979": "idespread", "7980": "cription", "7981": " roles", "7982": " languages", "7983": " profession", "7984": " entering", "7985": "osa", "7986": " VR", "7987": " interviews", "7988": " hang", "7989": "iel", "7990": "isp", "7991": " tox", "7992": " philosophy", "7993": "eman", "7994": " Administration", "7995": " arrange", "7996": " Kir", "7997": "oen", "7998": "interest", "7999": " flaw", "8000": " Nob", "8001": "Those", "8002": "sylv", "8003": "imore", "8004": " stadium", "8005": " Atlanta", "8006": " Jac", "8007": " reduction", "8008": " dinner", "8009": "burgh", "8010": " bath", "8011": " Report", "8012": "uper", "8013": " magn", "8014": " Turkish", "8015": "iti", "8016": " aver", "8017": " finger", "8018": " Note", "8019": " Conference", "8020": " tackle", "8021": " cha", "8022": " gonna", "8023": " Diego", "8024": " Point", "8025": " crop", "8026": " Centre", "8027": " farmers", "8028": " Manchester", "8029": " nominee", "8030": " 41", "8031": " Arm", "8032": "aching", "8033": " Jason", "8034": " barely", "8035": "ATO", "8036": " structures", "8037": " contained", "8038": " synt", "8039": " Ott", "8040": " delivery", "8041": "ta", "8042": "%,", "8043": " processing", "8044": " discrimination", "8045": " convin", "8046": " incent", "8047": "riers", "8048": " Fair", "8049": "erved", "8050": "RS", "8051": "53", "8052": "then", "8053": " Data", "8054": "ca", "8055": "ja", "8056": "abinet", "8057": " intellectual", "8058": "Ed", "8059": " Radio", "8060": "amsung", "8061": " 46", "8062": " Bry", "8063": " OK", "8064": " Field", "8065": " Did", "8066": " upset", "8067": " Perhaps", "8068": "Me", "8069": " Education", "8070": "sylvania", "8071": "away", "8072": " Mir", "8073": "President", "8074": " challenging", "8075": "rik", "8076": " proven", "8077": " restrictions", "8078": "iy", "8079": " forever", "8080": "https", "8081": "olen", "8082": " electronic", "8083": " hitting", "8084": " Hay", "8085": " euro", "8086": "ho", "8087": " unex", "8088": " reviews", "8089": " Christians", "8090": " 43", "8091": " NC", "8092": " convicted", "8093": "Star", "8094": " illness", "8095": " smooth", "8096": "page", "8097": "Dav", "8098": " Hor", "8099": " retired", "8100": " indicated", "8101": "usive", "8102": " ham", "8103": " producing", "8104": " About", "8105": " Harry", "8106": " rapidly", "8107": " rose", "8108": " hide", "8109": " corporations", "8110": "fr", "8111": " ocean", "8112": " Rus", "8113": "aying", "8114": "owing", "8115": " listening", "8116": " Reuters", "8117": " UFC", "8118": " Sat", "8119": " technique", "8120": " mo", "8121": "yard", "8122": "sels", "8123": " loyal", "8124": " Nic", "8125": " Pen", "8126": " Mean", "8127": "lessly", "8128": " robot", "8129": " notion", "8130": " begun", "8131": " util", "8132": " Fed", "8133": " recognition", "8134": "ouver", "8135": "engers", "8136": " perpet", "8137": " association", "8138": " milk", "8139": " asks", "8140": "87", "8141": " websites", "8142": " ren", "8143": " description", "8144": " Pack", "8145": "inf", "8146": " tickets", "8147": "achus", "8148": " flash", "8149": " suggesting", "8150": "enny", "8151": " Judge", "8152": " exclusive", "8153": " reaching", "8154": " bra", "8155": " prepare", "8156": " Kansas", "8157": "Who", "8158": "ione", "8159": " bail", "8160": " frag", "8161": " progressive", "8162": "imm", "8163": " exceed", "8164": " equally", "8165": " Hard", "8166": " hardly", "8167": " widespread", "8168": " ABC", "8169": " campaigns", "8170": " Mayor", "8171": " contribute", "8172": "udes", "8173": "ologists", "8174": " branch", "8175": "Look", "8176": " Rose", "8177": " grass", "8178": " initiative", "8179": " Market", "8180": " ethnic", "8181": " external", "8182": "ikes", "8183": " Circ", "8184": "uma", "8185": "rient", "8186": " sensitive", "8187": " practical", "8188": "usted", "8189": "elf", "8190": " unclear", "8191": " normally", "8192": "Ref", "8193": " representative", "8194": "pat", "8195": "bec", "8196": "ls", "8197": "thon", "8198": " welf", "8199": " Full", "8200": " reducing", "8201": "appy", "8202": "lad", "8203": " friendly", "8204": " carefully", "8205": " Arabia", "8206": " Ref", "8207": " Ly", "8208": "89", "8209": "PM", "8210": " Luc", "8211": " racist", "8212": " invent", "8213": "rical", "8214": "ouch", "8215": "PG", "8216": " CO", "8217": " Next", "8218": " respectively", "8219": "senal", "8220": "rator", "8221": " tail", "8222": " McCain", "8223": " Bernie", "8224": "ancouver", "8225": " overwhelming", "8226": " viewers", "8227": " Beach", "8228": "stract", "8229": " welfare", "8230": "arrass", "8231": " Further", "8232": " convinced", "8233": "UN", "8234": " smoke", "8235": "umes", "8236": " collapse", "8237": " involvement", "8238": " Lind", "8239": " thrown", "8240": "pload", "8241": " connections", "8242": "heast", "8243": " terrorists", "8244": " Battle", "8245": " strategic", "8246": " hook", "8247": " recover", "8248": " Latin", "8249": "omething", "8250": "igrant", "8251": " Ont", "8252": " wine", "8253": "Mc", "8254": "inois", "8255": " Music", "8256": "rolled", "8257": " minds", "8258": " vital", "8259": " settlement", "8260": " statistics", "8261": " lists", "8262": " vary", "8263": " featuring", "8264": " ESPN", "8265": "ecut", "8266": "achusetts", "8267": " Sir", "8268": " behaviour", "8269": " independence", "8270": " Dig", "8271": "worth", "8272": " fantasy", "8273": " devast", "8274": "ester", "8275": "nedy", "8276": "core", "8277": "uties", "8278": " invited", "8279": " complaints", "8280": " joining", "8281": " scores", "8282": " fiscal", "8283": " deeper", "8284": "dem", "8285": " Pennsylvania", "8286": "ifest", "8287": " steal", "8288": " anger", "8289": " deputy", "8290": " elig", "8291": " wars", "8292": " Square", "8293": " investigate", "8294": " Tenn", "8295": " Town", "8296": " sugar", "8297": " constitutional", "8298": " III", "8299": " scholars", "8300": " Pit", "8301": " iOS", "8302": " anybody", "8303": " subjects", "8304": " AND", "8305": " array", "8306": " alien", "8307": "bn", "8308": "FA", "8309": " Ult", "8310": " Gov", "8311": " lobby", "8312": " ownership", "8313": " framework", "8314": " unemployment", "8315": " Division", "8316": " transgender", "8317": " SS", "8318": " improvements", "8319": " menu", "8320": " peak", "8321": "Back", "8322": " screens", "8323": "ihad", "8324": " inject", "8325": " luck", "8326": "iversary", "8327": " define", "8328": " tasks", "8329": " Xbox", "8330": " democratic", "8331": " scandal", "8332": "icking", "8333": " jury", "8334": "acon", "8335": " Anton", "8336": " Ministry", "8337": "Che", "8338": " cos", "8339": " comprehens", "8340": "osit", "8341": " Kat", "8342": " Es", "8343": " discovery", "8344": "unior", "8345": " register", "8346": "agg", "8347": " casual", "8348": " remem", "8349": " citizen", "8350": " fab", "8351": "RI", "8352": "Sm", "8353": "Under", "8354": " roads", "8355": " disagree", "8356": " failing", "8357": " Never", "8358": " Little", "8359": " Jay", "8360": " dynamic", "8361": " serves", "8362": " Cameron", "8363": " Brother", "8364": " Mah", "8365": " testim", "8366": " gathered", "8367": " Stone", "8368": " Information", "8369": " soph", "8370": "oding", "8371": " implemented", "8372": " controversy", "8373": " collective", "8374": " trained", "8375": "anna", "8376": " NSA", "8377": " neighbour", "8378": " fears", "8379": "leveland", "8380": " samples", "8381": " fiction", "8382": " prosec", "8383": " estimate", "8384": " Community", "8385": " Ice", "8386": " Medical", "8387": " 1997", "8388": " Philipp", "8389": " referring", "8390": " tip", "8391": " captain", "8392": "Will", "8393": " 1996", "8394": " spaces", "8395": "69", "8396": "cific", "8397": " trem", "8398": " Walker", "8399": " versus", "8400": " legs", "8401": " Santa", "8402": " temporary", "8403": "PC", "8404": " noise", "8405": "'.", "8406": " HD", "8407": " overt", "8408": " incorpor", "8409": " tone", "8410": " visitors", "8411": " reven", "8412": " civilians", "8413": " wages", "8414": " hypot", "8415": "aka", "8416": " sin", "8417": " remarks", "8418": " awareness", "8419": " ON", "8420": " Spring", "8421": " recommended", "8422": " stupid", "8423": " Allen", "8424": " heading", "8425": " handful", "8426": "umin", "8427": " regulation", "8428": "icket", "8429": " Action", "8430": " Core", "8431": " platforms", "8432": " accus", "8433": " Anthony", "8434": "mad", "8435": " affairs", "8436": "gener", "8437": " touchdown", "8438": " rural", "8439": " attacking", "8440": " extend", "8441": " ultimate", "8442": " attached", "8443": " Vegas", "8444": " discussions", "8445": " Ren", "8446": " horse", "8447": " Brew", "8448": " reprodu", "8449": " genetic", "8450": " expanded", "8451": " attempting", "8452": "phones", "8453": " Matthew", "8454": " races", "8455": "including", "8456": "iry", "8457": " Queen", "8458": " raw", "8459": " ignore", "8460": " Columbia", "8461": "serv", "8462": " Pent", "8463": " Guardian", "8464": "hour", "8465": " Cook", "8466": " iP", "8467": "itionally", "8468": " gear", "8469": " symptoms", "8470": " Patrick", "8471": " suffer", "8472": " settings", "8473": " Make", "8474": "alling", "8475": " salary", "8476": "case", "8477": " licens", "8478": "mary", "8479": "GO", "8480": " tweeted", "8481": "angel", "8482": " publication", "8483": " brill", "8484": " factory", "8485": " suspected", "8486": " purchased", "8487": "aret", "8488": " intervention", "8489": " eastern", "8490": " holiday", "8491": "type", "8492": "2014", "8493": " theat", "8494": "About", "8495": " displ", "8496": "esh", "8497": " ranked", "8498": " neck", "8499": " Conservative", "8500": " Austin", "8501": " Museum", "8502": "ective", "8503": " Roy", "8504": "\")", "8505": " cro", "8506": " Budd", "8507": "Sen", "8508": " enormous", "8509": "###", "8510": "intendo", "8511": " cogn", "8512": " logic", "8513": "ultural", "8514": "ictions", "8515": " improvement", "8516": " API", "8517": " viewed", "8518": " ingred", "8519": " entertainment", "8520": "Ass", "8521": " legitimate", "8522": " Professor", "8523": "ommod", "8524": " presum", "8525": " Albert", "8526": " Massachusetts", "8527": " Ball", "8528": " 2019", "8529": " www", "8530": "News", "8531": " actors", "8532": " substantial", "8533": " humanity", "8534": " involves", "8535": " resource", "8536": "arms", "8537": " brothers", "8538": " liquid", "8539": " rational", "8540": " seemingly", "8541": " sorry", "8542": " layer", "8543": " loans", "8544": " rook", "8545": " investigating", "8546": " absence", "8547": " providers", "8548": " tomorrow", "8549": " fallen", "8550": " bureau", "8551": " grounds", "8552": " coaches", "8553": " stake", "8554": " resign", "8555": " outs", "8556": "rec", "8557": " advocates", "8558": " Ho", "8559": " \u00e2\u0082\u00ac", "8560": "RC", "8561": " investigators", "8562": " conspiracy", "8563": "Where", "8564": " medicine", "8565": " dramatic", "8566": " fulf", "8567": " monitor", "8568": " Chair", "8569": "EST", "8570": "repre", "8571": " overs", "8572": " chapter", "8573": " Season", "8574": " coc", "8575": "oval", "8576": "GE", "8577": "lah", "8578": ".-", "8579": " activist", "8580": "plete", "8581": " boat", "8582": " Check", "8583": " Control", "8584": " gam", "8585": " jur", "8586": " suspended", "8587": " papers", "8588": "Script", "8589": " Greece", "8590": " opinions", "8591": " Such", "8592": " Ross", "8593": " missile", "8594": " Golden", "8595": " celeb", "8596": " Revolution", "8597": "ped", "8598": "2016", "8599": " Ra", "8600": " Head", "8601": " stayed", "8602": " covers", "8603": "iverpool", "8604": " diversity", "8605": "otype", "8606": " bars", "8607": "Part", "8608": "Russ", "8609": " embarrass", "8610": "xit", "8611": " offices", "8612": " Acc", "8613": "rets", "8614": "ourse", "8615": "claim", "8616": " Pot", "8617": " Iranian", "8618": " disrupt", "8619": "cover", "8620": " WW", "8621": " preced", "8622": " poly", "8623": " forest", "8624": "wered", "8625": " careful", "8626": "reprene", "8627": "vard", "8628": "ila", "8629": " amid", "8630": " History", "8631": " mad", "8632": "hot", "8633": "quest", "8634": " Hospital", "8635": "isting", "8636": "ammed", "8637": " Ale", "8638": " authent", "8639": " Illinois", "8640": " CBS", "8641": " Sony", "8642": "uction", "8643": "79", "8644": "geon", "8645": "Related", "8646": "rine", "8647": " transportation", "8648": " Vancouver", "8649": "bi", "8650": " Gaza", "8651": " handed", "8652": " protocol", "8653": " consistently", "8654": " mountain", "8655": " 52", "8656": " Ap", "8657": " reads", "8658": " Stat", "8659": " pref", "8660": " clothes", "8661": " attitude", "8662": "iability", "8663": " Share", "8664": " Kennedy", "8665": " porn", "8666": " princip", "8667": " Freedom", "8668": "ses", "8669": " depends", "8670": " mining", "8671": "des", "8672": " petition", "8673": " noting", "8674": " warrant", "8675": " conce", "8676": " colors", "8677": " lowest", "8678": " Anderson", "8679": " Tri", "8680": " addressed", "8681": " Family", "8682": "72", "8683": "unes", "8684": "Ste", "8685": " entr", "8686": " Stadium", "8687": "xx", "8688": " throwing", "8689": " je", "8690": "74", "8691": " fruit", "8692": " virtually", "8693": "!)", "8694": " stone", "8695": " foss", "8696": " guarantee", "8697": " referend", "8698": "inch", "8699": "Both", "8700": "??", "8701": " speaks", "8702": " Baltimore", "8703": " steel", "8704": " closing", "8705": "itting", "8706": " reader", "8707": "dri", "8708": "FF", "8709": " buff", "8710": " personality", "8711": " Cre", "8712": " appreciate", "8713": " Iraqi", "8714": " surf", "8715": " Environment", "8716": " nerv", "8717": "iences", "8718": "maker", "8719": "keep", "8720": " handling", "8721": " profits", "8722": "ordon", "8723": " grav", "8724": " km", "8725": " marks", "8726": "low", "8727": " tries", "8728": " Broad", "8729": " contributions", "8730": " Engine", "8731": "ropri", "8732": " spiritual", "8733": " conversations", "8734": " fantastic", "8735": " Tro", "8736": "zed", "8737": " lands", "8738": " console", "8739": " horror", "8740": "ppers", "8741": "\".[", "8742": "icity", "8743": " gains", "8744": " covering", "8745": " tea", "8746": "ivals", "8747": " Harris", "8748": "Her", "8749": " hint", "8750": " astron", "8751": "aval", "8752": " shoulder", "8753": "scale", "8754": " wrest", "8755": " guest", "8756": " Ext", "8757": " accommod", "8758": "uted", "8759": "uits", "8760": " depression", "8761": " CA", "8762": " _", "8763": " Lewis", "8764": " lucky", "8765": " Bang", "8766": " encouraged", "8767": "flix", "8768": "amac", "8769": " judges", "8770": " incidents", "8771": " Cleveland", "8772": " drew", "8773": " subsequent", "8774": " spoken", "8775": "ira", "8776": " Howard", "8777": "annels", "8778": " Bad", "8779": " brown", "8780": " bacter", "8781": "Please", "8782": "ixed", "8783": " rhet", "8784": " ranks", "8785": " Getty", "8786": " photograp", "8787": " inflation", "8788": " inner", "8789": " Intelligence", "8790": " Po", "8791": "mat", "8792": " Ba", "8793": " maps", "8794": "abeth", "8795": " Patri", "8796": "ported", "8797": "ijing", "8798": "plate", "8799": " divided", "8800": " 1995", "8801": " NATO", "8802": " paralle", "8803": " drama", "8804": " Mexican", "8805": " distributed", "8806": " gal", "8807": " innovation", "8808": "unicip", "8809": " cust", "8810": " Unfortunately", "8811": " premium", "8812": " voter", "8813": " permit", "8814": " revel", "8815": " Kong", "8816": " dance", "8817": "pled", "8818": " Las", "8819": " swing", "8820": " efficiency", "8821": " promises", "8822": " Indeed", "8823": "Note", "8824": " CH", "8825": " Which", "8826": " ballot", "8827": " 51", "8828": "eding", "8829": "pie", "8830": " Adv", "8831": " temperatures", "8832": " Samsung", "8833": " portray", "8834": " spokesperson", "8835": " locked", "8836": " lying", "8837": " improving", "8838": "800", "8839": " threw", "8840": " joy", "8841": " dump", "8842": "Art", "8843": " musical", "8844": "PP", "8845": " mistakes", "8846": "dated", "8847": " shout", "8848": " Start", "8849": " homeless", "8850": "conf", "8851": " replacement", "8852": "eries", "8853": " comedy", "8854": " checks", "8855": " Without", "8856": " Moon", "8857": " instrument", "8858": "ounce", "8859": " Connect", "8860": " acknowledged", "8861": " barrel", "8862": " responses", "8863": " protecting", "8864": "backs", "8865": " Det", "8866": "\u00c2\u0092", "8867": "heim", "8868": " silver", "8869": " copies", "8870": " les", "8871": " AC", "8872": " dad", "8873": " breaks", "8874": " Plus", "8875": " Buff", "8876": " commonly", "8877": " lets", "8878": " legacy", "8879": "itage", "8880": " mathem", "8881": " protein", "8882": " joke", "8883": "amacare", "8884": "erted", "8885": "arre", "8886": " passengers", "8887": "2015", "8888": " yellow", "8889": " Marvel", "8890": "hop", "8891": " naturally", "8892": "Your", "8893": " Scient", "8894": " nomination", "8895": "Source", "8896": " measured", "8897": "aping", "8898": "alia", "8899": " Use", "8900": " abandoned", "8901": "oded", "8902": " Prince", "8903": " studied", "8904": " Football", "8905": "helsea", "8906": " diverse", "8907": "argo", "8908": " acquired", "8909": "ieties", "8910": " Lyn", "8911": "Cons", "8912": "esty", "8913": " soil", "8914": " Marsh", "8915": " demonstrated", "8916": " blast", "8917": " rear", "8918": " funded", "8919": " headquarters", "8920": "hesis", "8921": " stolen", "8922": "inians", "8923": " scan", "8924": " counts", "8925": " tape", "8926": " partnership", "8927": " midfield", "8928": " NOT", "8929": "yo", "8930": " (\u00e2\u0080\u009c", "8931": " upgrade", "8932": " Cost", "8933": " Atlantic", "8934": " march", "8935": " grid", "8936": " ordinary", "8937": " Aud", "8938": " Nev", "8939": " rom", "8940": "aware", "8941": " literature", "8942": " plain", "8943": " stages", "8944": " \u00e2\u0080\u00a2", "8945": "high", "8946": " assert", "8947": " 1994", "8948": " AI", "8949": " helpful", "8950": " arrive", "8951": " exit", "8952": " scope", "8953": " falls", "8954": "dog", "8955": "yer", "8956": " ignored", "8957": "BM", "8958": " twenty", "8959": "eters", "8960": " Master", "8961": " clock", "8962": " compe", "8963": "inction", "8964": " virus", "8965": " Trib", "8966": " referendum", "8967": " inequ", "8968": " unions", "8969": " Does", "8970": "erg", "8971": "assador", "8972": " Gun", "8973": " conservatives", "8974": " rif", "8975": " symp", "8976": " festival", "8977": " shopping", "8978": " fro", "8979": " waters", "8980": " Pop", "8981": " capabilities", "8982": " Bron", "8983": " ax", "8984": "zing", "8985": "lahoma", "8986": " usage", "8987": " Hind", "8988": "iate", "8989": " Empire", "8990": "aeda", "8991": " Indiana", "8992": "iley", "8993": " transactions", "8994": " hoped", "8995": "VE", "8996": " distract", "8997": " Ast", "8998": " guitar", "8999": " Eag", "9000": " Abb", "9001": " sty", "9002": " ramp", "9003": " assessment", "9004": "ctic", "9005": " universities", "9006": " Dave", "9007": " moon", "9008": " monitoring", "9009": "ormal", "9010": "acket", "9011": "bridge", "9012": "Facebook", "9013": " representing", "9014": " ratio", "9015": " Death", "9016": "encing", "9017": "ught", "9018": " Prov", "9019": " conventional", "9020": "comes", "9021": "UST", "9022": "orge", "9023": " trave", "9024": "ington", "9025": " Set", "9026": " tracking", "9027": "door", "9028": "ntil", "9029": " Sometimes", "9030": "only", "9031": "shire", "9032": " Sus", "9033": " hung", "9034": " reliable", "9035": " tie", "9036": " proposals", "9037": " skept", "9038": " Hell", "9039": " replied", "9040": " Ros", "9041": "fund", "9042": " criticized", "9043": "uh", "9044": " appearances", "9045": "62", "9046": "ecutive", "9047": " Ha", "9048": " racism", "9049": "ela", "9050": " Lim", "9051": " insisted", "9052": "organ", "9053": "rimin", "9054": " introduction", "9055": " 2020", "9056": " appointed", "9057": "dney", "9058": " Bureau", "9059": "olph", "9060": "agic", "9061": " Pass", "9062": "cut", "9063": "Ke", "9064": " Line", "9065": " beauty", "9066": " concrete", "9067": " receiver", "9068": " supplies", "9069": " performing", "9070": "made", "9071": " bub", "9072": " exch", "9073": "rite", "9074": " visiting", "9075": " Technology", "9076": "63", "9077": " Denver", "9078": "ocument", "9079": "EE", "9080": " Jam", "9081": "omes", "9082": " Capt", "9083": "theless", "9084": "RL", "9085": " letting", "9086": " swim", "9087": "AND", "9088": " deficit", "9089": " classified", "9090": " Galaxy", "9091": "aga", "9092": " auto", "9093": " render", "9094": " absor", "9095": " Orig", "9096": " accomplish", "9097": " programme", "9098": " presidency", "9099": "HT", "9100": "crib", "9101": "61", "9102": " blocked", "9103": " Sweden", "9104": "archy", "9105": " dust", "9106": " Utah", "9107": " drove", "9108": " landscape", "9109": " cance", "9110": " Portland", "9111": "plus", "9112": " dismissed", "9113": " LA", "9114": " hyper", "9115": " abroad", "9116": " bonus", "9117": " Tour", "9118": "har", "9119": " sequence", "9120": " predicted", "9121": " senator", "9122": "\u00c2\u00b0", "9123": " Age", "9124": " domain", "9125": " Code", "9126": " ec", "9127": " museum", "9128": " Associated", "9129": "acco", "9130": " warn", "9131": " persons", "9132": "NS", "9133": "ji", "9134": " dub", "9135": " requested", "9136": " trigger", "9137": " Ontario", "9138": " hockey", "9139": " Corpor", "9140": "iano", "9141": " artific", "9142": " dates", "9143": " testimony", "9144": " centers", "9145": "\u00d0\u00bb", "9146": " rocket", "9147": "irts", "9148": " ves", "9149": " transit", "9150": " congressional", "9151": " entitled", "9152": "ultane", "9153": " spokeswoman", "9154": " Front", "9155": " Nintendo", "9156": " Alexander", "9157": " rescue", "9158": " Cooper", "9159": "mony", "9160": " assign", "9161": " Bon", "9162": " equality", "9163": " patch", "9164": " urged", "9165": " bread", "9166": " Olympic", "9167": " documentary", "9168": " veterans", "9169": " clar", "9170": "fol", "9171": " Wik", "9172": " \u00e2\u0080\u009d", "9173": "king", "9174": "pton", "9175": " recall", "9176": " populations", "9177": " Low", "9178": " breath", "9179": "Still", "9180": "600", "9181": "rooms", "9182": " whenever", "9183": " violation", "9184": " tactics", "9185": " wider", "9186": "ounding", "9187": "93", "9188": " targeting", "9189": "Yet", "9190": "through", "9191": " pursue", "9192": "92", "9193": " salt", "9194": "\">", "9195": " lean", "9196": "Are", "9197": "izabeth", "9198": " firing", "9199": "94", "9200": " Kar", "9201": " Mill", "9202": " acid", "9203": "inating", "9204": " mole", "9205": "isons", "9206": " restaurants", "9207": " compare", "9208": "fare", "9209": "Comp", "9210": "dy", "9211": "orous", "9212": "ennis", "9213": " employed", "9214": " Roberts", "9215": " contrad", "9216": " Bible", "9217": " politically", "9218": "aver", "9219": " phrase", "9220": " satellite", "9221": " Cro", "9222": " survival", "9223": " retirement", "9224": " banking", "9225": " Form", "9226": " brilliant", "9227": " Girl", "9228": "atar", "9229": " channels", "9230": "71", "9231": " servers", "9232": "73", "9233": " Beijing", "9234": " soccer", "9235": "trans", "9236": " Mach", "9237": "they", "9238": " burden", "9239": " introduce", "9240": " experiments", "9241": "enez", "9242": " prisoners", "9243": "rapped", "9244": " cig", "9245": " WH", "9246": "afe", "9247": "jud", "9248": " fighter", "9249": " scientist", "9250": "OK", "9251": " YOU", "9252": "usalem", "9253": " List", "9254": " submit", "9255": " approached", "9256": " Award", "9257": " monthly", "9258": " Liverpool", "9259": " designs", "9260": " representatives", "9261": " titled", "9262": "ordinary", "9263": " quote", "9264": " popularity", "9265": "olves", "9266": " abilities", "9267": "oenix", "9268": " cul", "9269": " PD", "9270": " membership", "9271": " investigations", "9272": " focusing", "9273": " bab", "9274": "mans", "9275": " hosp", "9276": " Bridge", "9277": "Though", "9278": " Maryland", "9279": " saving", "9280": "bow", "9281": " rush", "9282": " Governor", "9283": " shadow", "9284": "ouri", "9285": " Hur", "9286": " Base", "9287": " objective", "9288": "berry", "9289": " Ted", "9290": "erts", "9291": "ederation", "9292": " mit", "9293": " prepar", "9294": " tips", "9295": " Was", "9296": "ele", "9297": "emed", "9298": " pipeline", "9299": "David", "9300": " childhood", "9301": " ratings", "9302": " thorough", "9303": " entreprene", "9304": "enter", "9305": "ais", "9306": " Vill", "9307": " Dutch", "9308": "was", "9309": "break", "9310": " actively", "9311": " Harvard", "9312": " pig", "9313": " demanding", "9314": " loose", "9315": "asty", "9316": " unexpected", "9317": " smoking", "9318": " smell", "9319": " deny", "9320": "CO", "9321": "don", "9322": " universal", "9323": "ika", "9324": " forecast", "9325": " argues", "9326": " phenomenon", "9327": " overseas", "9328": " settled", "9329": "olds", "9330": "walk", "9331": " Beck", "9332": " generations", "9333": " weekly", "9334": " chicken", "9335": " preparing", "9336": " 95", "9337": " smartphone", "9338": " producers", "9339": " butt", "9340": " PA", "9341": " legislative", "9342": " anxiety", "9343": " Have", "9344": " innocent", "9345": "minute", "9346": " Click", "9347": " mortg", "9348": " celebrate", "9349": " Ur", "9350": " provision", "9351": "Dem", "9352": " DO", "9353": " keys", "9354": " mini", "9355": " shame", "9356": " arguing", "9357": " Justin", "9358": " Design", "9359": "held", "9360": " questioned", "9361": " forcing", "9362": " Cow", "9363": " Hop", "9364": "ompson", "9365": "agh", "9366": "\u00e2\u0094", "9367": " broader", "9368": " encounter", "9369": "mers", "9370": "SL", "9371": " flags", "9372": " fool", "9373": "Sim", "9374": " fur", "9375": " mac", "9376": " 53", "9377": " deadly", "9378": " reverse", "9379": "oz", "9380": " weigh", "9381": " Edward", "9382": " Among", "9383": " tens", "9384": " ~", "9385": " mos", "9386": " wealthy", "9387": " Obamacare", "9388": " unpre", "9389": " tab", "9390": " maintained", "9391": "eals", "9392": " surely", "9393": " shield", "9394": " Prop", "9395": "ocolate", "9396": "oret", "9397": " secondary", "9398": " savings", "9399": "isa", "9400": "irlf", "9401": "aved", "9402": " roof", "9403": " stability", "9404": " civilian", "9405": "\u00c4\u0083", "9406": "elson", "9407": " Carter", "9408": " reveals", "9409": "mind", "9410": " alarm", "9411": " anniversary", "9412": " sorts", "9413": " Bra", "9414": " Ak", "9415": "vernment", "9416": "El", "9417": " tonight", "9418": " releases", "9419": " Hon", "9420": " rooms", "9421": "irlfriend", "9422": " Gulf", "9423": " outrage", "9424": " prosecutors", "9425": " Left", "9426": "inals", "9427": " disorder", "9428": "84", "9429": " wedd", "9430": " exha", "9431": "orious", "9432": "isk", "9433": " shr", "9434": " relax", "9435": " windows", "9436": " threatening", "9437": " differently", "9438": " harassment", "9439": " quoted", "9440": " healthcare", "9441": " submitted", "9442": " arbit", "9443": " lunch", "9444": "step", "9445": "pa", "9446": " Run", "9447": " reforms", "9448": " torture", "9449": "rection", "9450": " fate", "9451": " stored", "9452": " Belg", "9453": " okay", "9454": " propaganda", "9455": " spots", "9456": " instructions", "9457": " Vietnam", "9458": " sevent", "9459": " rounds", "9460": " odds", "9461": "itter", "9462": " 1992", "9463": " aer", "9464": "html", "9465": "tenance", "9466": " errors", "9467": " Oklahoma", "9468": " hydro", "9469": "icism", "9470": "GA", "9471": " delic", "9472": "ailed", "9473": " Liberal", "9474": " silence", "9475": " Graham", "9476": " Sab", "9477": "ois", "9478": "acts", "9479": " Warren", "9480": " graduate", "9481": " affordable", "9482": " circle", "9483": "sect", "9484": " Bloom", "9485": " cooperation", "9486": " picks", "9487": " sear", "9488": "itary", "9489": " Sarah", "9490": "aa", "9491": " Fall", "9492": "ested", "9493": "orship", "9494": " Expl", "9495": " striking", "9496": " puzz", "9497": " persu", "9498": " streaming", "9499": " comprehensive", "9500": "race", "9501": " importantly", "9502": " cow", "9503": " possess", "9504": "Watch", "9505": " fing", "9506": " execution", "9507": " Ruby", "9508": "lined", "9509": " intim", "9510": " struggled", "9511": " Som", "9512": " Person", "9513": " assass", "9514": " Silver", "9515": " Leader", "9516": "uten", "9517": "ahu", "9518": " gent", "9519": " Price", "9520": "Reuters", "9521": "Ty", "9522": "ishop", "9523": " deserve", "9524": " Jerusalem", "9525": " landing", "9526": " calm", "9527": " alter", "9528": " ceremony", "9529": " assumed", "9530": " demonstrate", "9531": " difficulty", "9532": " ages", "9533": " pron", "9534": " dying", "9535": " hal", "9536": " distingu", "9537": "asury", "9538": " stepped", "9539": " borders", "9540": " chest", "9541": "ethe", "9542": " Wolf", "9543": " Lt", "9544": " Bud", "9545": " adventure", "9546": " pointing", "9547": "bury", "9548": "ova", "9549": " waves", "9550": " kilomet", "9551": "essee", "9552": "atern", "9553": "ierce", "9554": " Netflix", "9555": " autonom", "9556": " Ten", "9557": " precisely", "9558": " architecture", "9559": " greatly", "9560": " promising", "9561": " consent", "9562": " consideration", "9563": " Deb", "9564": " drives", "9565": " dialogue", "9566": " Main", "9567": " tremend", "9568": "asant", "9569": " newsletter", "9570": " rookie", "9571": " awarded", "9572": " Meanwhile", "9573": "after", "9574": " repeat", "9575": " Story", "9576": " contribution", "9577": " Tele", "9578": " burning", "9579": "83", "9580": "iev", "9581": "party", "9582": " simultane", "9583": " Scottish", "9584": " Vice", "9585": " donations", "9586": " Indust", "9587": "akh", "9588": " interf", "9589": "itol", "9590": " Magic", "9591": " voices", "9592": " analyst", "9593": " Bruce", "9594": " Tech", "9595": "ceptions", "9596": " gif", "9597": " frequency", "9598": " Common", "9599": " procedure", "9600": " wanting", "9601": " Pres", "9602": " executives", "9603": " playoffs", "9604": "oice", "9605": " staying", "9606": "apolis", "9607": " birds", "9608": " bias", "9609": "VD", "9610": " Hong", "9611": " Az", "9612": "izer", "9613": " inches", "9614": " trillion", "9615": "omy", "9616": "holders", "9617": "ds", "9618": " highlights", "9619": " semi", "9620": " remarkable", "9621": " whereas", "9622": "EX", "9623": "ributes", "9624": " Palestinians", "9625": " knee", "9626": "open", "9627": " Jonathan", "9628": "raig", "9629": " implications", "9630": "scribe", "9631": " formation", "9632": " superior", "9633": " strategies", "9634": " ans", "9635": "itual", "9636": " Berlin", "9637": "Step", "9638": "div", "9639": " Link", "9640": "stal", "9641": " Sydney", "9642": "lee", "9643": " MORE", "9644": " categories", "9645": " Ark", "9646": " fet", "9647": " followers", "9648": " cream", "9649": "Story", "9650": "portation", "9651": "FO", "9652": " contacted", "9653": "Ms", "9654": " judgment", "9655": "annon", "9656": " smile", "9657": "bered", "9658": " info", "9659": " emerging", "9660": "igious", "9661": "rif", "9662": "js", "9663": "onder", "9664": "vision", "9665": " Eff", "9666": "vertisements", "9667": "iffs", "9668": "hatt", "9669": " accessible", "9670": "yes", "9671": "TP", "9672": " physically", "9673": " assigned", "9674": " 54", "9675": " Andre", "9676": " guidelines", "9677": " defeated", "9678": " crimin", "9679": " wounded", "9680": " trials", "9681": " stem", "9682": " managing", "9683": " spell", "9684": " ministry", "9685": " grade", "9686": " coinc", "9687": " riding", "9688": " indicates", "9689": " centuries", "9690": "Christ", "9691": "cest", "9692": " Affairs", "9693": " opens", "9694": "aki", "9695": " pharm", "9696": "lla", "9697": " meaningful", "9698": "omed", "9699": " tiss", "9700": "erent", "9701": " Mrs", "9702": " ease", "9703": "child", "9704": " margin", "9705": " Store", "9706": " clothing", "9707": " Tes", "9708": " \u00e2\u0088\u0092", "9709": " Six", "9710": " Capital", "9711": " participation", "9712": "cedented", "9713": "Mus", "9714": " revers", "9715": "aria", "9716": " poison", "9717": " Brexit", "9718": " 120", "9719": " Yemen", "9720": " lapt", "9721": "iac", "9722": " competing", "9723": " memories", "9724": " CS", "9725": " theories", "9726": " recipe", "9727": " gross", "9728": "umble", "9729": "author", "9730": "hard", "9731": " passage", "9732": " aged", "9733": " Credit", "9734": " bin", "9735": " drone", "9736": " blank", "9737": " dispute", "9738": "van", "9739": " damaged", "9740": " 1993", "9741": " Hamilton", "9742": " Lam", "9743": "base", "9744": " substance", "9745": " hosted", "9746": "TER", "9747": "Google", "9748": " Chelsea", "9749": " promoting", "9750": " facilit", "9751": " openly", "9752": " Instagram", "9753": " 1950", "9754": " Vik", "9755": "View", "9756": " Children", "9757": " Crime", "9758": "sl", "9759": " clinical", "9760": "Out", "9761": " nic", "9762": "bits", "9763": "eremy", "9764": " Hold", "9765": "even", "9766": " investments", "9767": " consensus", "9768": "igate", "9769": " Leon", "9770": " Fal", "9771": " 99", "9772": " educational", "9773": "const", "9774": "->", "9775": " dish", "9776": " manifest", "9777": " custody", "9778": "ito", "9779": "week", "9780": " eligible", "9781": " Hawai", "9782": " legally", "9783": " missions", "9784": " endorse", "9785": "eria", "9786": " gate", "9787": " memo", "9788": " GT", "9789": " tables", "9790": " Pict", "9791": " nin", "9792": " studying", "9793": "Hz", "9794": " ?", "9795": " charity", "9796": "aration", "9797": " addresses", "9798": "adi", "9799": " inspect", "9800": " discount", "9801": "rix", "9802": "left", "9803": " battles", "9804": "ALL", "9805": " Der", "9806": " 250", "9807": " Assembly", "9808": " athletes", "9809": "Pre", "9810": " Trade", "9811": " fossil", "9812": " enthusi", "9813": " Management", "9814": " suspects", "9815": " tired", "9816": " helic", "9817": "Act", "9818": " counterpart", "9819": " na", "9820": "82", "9821": "achel", "9822": " dating", "9823": " Eth", "9824": " spectrum", "9825": " Metro", "9826": "ateral", "9827": " Station", "9828": " Bal", "9829": " presentation", "9830": " lux", "9831": "gered", "9832": " bottle", "9833": " tap", "9834": "arts", "9835": "riors", "9836": " vig", "9837": " fundra", "9838": " enhance", "9839": "assy", "9840": " Sean", "9841": " therapy", "9842": " Wales", "9843": " Exper", "9844": " perceived", "9845": "market", "9846": " Tok", "9847": " dominant", "9848": "Def", "9849": "math", "9850": " backing", "9851": " Festival", "9852": " underlying", "9853": " defending", "9854": " Through", "9855": " racing", "9856": " discussing", "9857": " expanding", "9858": " muscle", "9859": " stops", "9860": "uz", "9861": " beings", "9862": " Marx", "9863": " Equ", "9864": " transaction", "9865": "rows", "9866": " Uber", "9867": "Cal", "9868": " recruit", "9869": "itudes", "9870": "acher", "9871": " Gary", "9872": " mood", "9873": " picking", "9874": "lando", "9875": "ylum", "9876": "player", "9877": " managers", "9878": "orable", "9879": " gathering", "9880": " hopefully", "9881": "angle", "9882": " Son", "9883": "alysis", "9884": " Video", "9885": "section", "9886": " crus", "9887": " Libya", "9888": " impression", "9889": " hip", "9890": "olar", "9891": "\u00c3\u00a2", "9892": " scrut", "9893": " roy", "9894": " Tai", "9895": "igenous", "9896": " institution", "9897": " Batman", "9898": "}}", "9899": " stere", "9900": " procedures", "9901": "\u00c3\u00b1", "9902": " pocket", "9903": " creatures", "9904": " compat", "9905": " arrival", "9906": "ptions", "9907": "oln", "9908": "watch", "9909": " Boe", "9910": " eager", "9911": " pollution", "9912": "iture", "9913": " foods", "9914": " kitchen", "9915": "ocial", "9916": " recre", "9917": " surviv", "9918": "roph", "9919": " organic", "9920": " Pentagon", "9921": " Morgan", "9922": " shipping", "9923": " capitalism", "9924": " insult", "9925": " timing", "9926": "odox", "9927": " requirement", "9928": "sub", "9929": " unfair", "9930": "aders", "9931": " mice", "9932": " 56", "9933": " Assad", "9934": " Represent", "9935": " Mess", "9936": " MLS", "9937": "Mod", "9938": "Rem", "9939": "atively", "9940": " Elizabeth", "9941": " Op", "9942": " diseases", "9943": " industries", "9944": " Oakland", "9945": " bowl", "9946": " Murray", "9947": " Creat", "9948": " helicop", "9949": " divor", "9950": "agger", "9951": " beach", "9952": " punishment", "9953": "abet", "9954": " shell", "9955": " fled", "9956": " hospitals", "9957": "missions", "9958": " tons", "9959": " Kick", "9960": " seed", "9961": "ogy", "9962": "AF", "9963": "81", "9964": " Comey", "9965": "opyright", "9966": " statist", "9967": " engineers", "9968": " obsc", "9969": " hire", "9970": " module", "9971": "Reg", "9972": "AY", "9973": " coaching", "9974": "amous", "9975": " sed", "9976": "oca", "9977": " answered", "9978": "rac", "9979": "SC", "9980": "TR", "9981": " graphics", "9982": " regulatory", "9983": " sovere", "9984": " stance", "9985": "alties", "9986": " bow", "9987": " Keep", "9988": "Click", "9989": " explaining", "9990": " rhetoric", "9991": " beating", "9992": " tut", "9993": " Friend", "9994": " Email", "9995": "rior", "9996": " Yeah", "9997": "emic", "9998": " Mit", "9999": " acknowledge", "10000": " Michel", "10001": " principal", "10002": " pulling", "10003": "erves", "10004": " signature", "10005": "brid", "10006": "olving", "10007": " convince", "10008": " Roll", "10009": " variable", "10010": "cosystem", "10011": " pill", "10012": " searching", "10013": " Ox", "10014": " dies", "10015": " overcome", "10016": " preferred", "10017": "duction", "10018": " sixth", "10019": " adviser", "10020": " Tennessee", "10021": " !", "10022": " trends", "10023": " Russell", "10024": " (\"", "10025": " Thompson", "10026": " merch", "10027": " rebels", "10028": " interaction", "10029": " periods", "10030": "Ge", "10031": " psychological", "10032": "Mich", "10033": " Sure", "10034": " Using", "10035": " economics", "10036": " Charlie", "10037": " Bi", "10038": " outlets", "10039": " Gil", "10040": " Intel", "10041": " signals", "10042": "pg", "10043": " echo", "10044": " Executive", "10045": " Kentucky", "10046": " tempor", "10047": " billions", "10048": " lineup", "10049": " math", "10050": " Yan", "10051": "urg", "10052": "2013", "10053": " 1991", "10054": " setup", "10055": " rend", "10056": "Finally", "10057": "netic", "10058": " eggs", "10059": "Comm", "10060": " segment", "10061": " arr", "10062": "ui", "10063": "mic", "10064": " badly", "10065": "kee", "10066": " Li", "10067": " sentenced", "10068": " everyday", "10069": " Dragon", "10070": " commander", "10071": " Holl", "10072": " AN", "10073": " loves", "10074": "unicipal", "10075": " genes", "10076": "NBC", "10077": " bold", "10078": " requiring", "10079": " bullet", "10080": " invasion", "10081": "will", "10082": " partly", "10083": " escal", "10084": "91", "10085": " instant", "10086": " gig", "10087": " Jean", "10088": "check", "10089": "!!!", "10090": " arts", "10091": " gene", "10092": " removal", "10093": " undert", "10094": " upload", "10095": "liest", "10096": " Hart", "10097": " topics", "10098": " Iron", "10099": "enezuel", "10100": " inquiry", "10101": " amendment", "10102": " weakness", "10103": " Rather", "10104": " concepts", "10105": "news", "10106": " McK", "10107": "PL", "10108": " shoes", "10109": "arted", "10110": " Sound", "10111": "rer", "10112": " fabric", "10113": "izza", "10114": " Delhi", "10115": "Earlier", "10116": "tsburgh", "10117": " frequent", "10118": " sections", "10119": " occurs", "10120": " Ze", "10121": "oli", "10122": " migrants", "10123": " compensation", "10124": " engineer", "10125": "eness", "10126": " lad", "10127": "has", "10128": " Finally", "10129": " fo", "10130": " attractive", "10131": " Box", "10132": " unve", "10133": "cor", "10134": " ).", "10135": " citing", "10136": " tweets", "10137": " utility", "10138": "arency", "10139": "grade", "10140": " posting", "10141": " ridiculous", "10142": " blockchain", "10143": " cler", "10144": " Clark", "10145": " speaker", "10146": "\u00e2\u0094\u0080", "10147": " diam", "10148": "\u00d8\u00a7", "10149": " corrupt", "10150": " talented", "10151": " lect", "10152": " collaps", "10153": " mask", "10154": "\u00e2\u0080\u0090", "10155": "necess", "10156": "screen", "10157": " notable", "10158": " Therefore", "10159": " elder", "10160": " genre", "10161": "instein", "10162": " deadline", "10163": " rolling", "10164": " carries", "10165": " BM", "10166": "Top", "10167": " Final", "10168": "via", "10169": " ET", "10170": "ental", "10171": " approaches", "10172": " eliminate", "10173": " Priv", "10174": " analysts", "10175": " sits", "10176": " cens", "10177": "State", "10178": " instances", "10179": " Simon", "10180": " publishing", "10181": " unprecedented", "10182": " colour", "10183": " roots", "10184": " Phoenix", "10185": "VP", "10186": " cock", "10187": " bene", "10188": " Dur", "10189": " Psych", "10190": " toxic", "10191": "gus", "10192": " collaboration", "10193": " arc", "10194": " inequality", "10195": " neighbors", "10196": " insight", "10197": " dramatically", "10198": " Harper", "10199": " homosexual", "10200": " towns", "10201": " prize", "10202": " extraordinary", "10203": " perception", "10204": " Gordon", "10205": " Whether", "10206": " Phill", "10207": " parad", "10208": "arget", "10209": " gest", "10210": " maintenance", "10211": "owski", "10212": " GO", "10213": " Gro", "10214": " cheaper", "10215": "isdom", "10216": " associate", "10217": "die", "10218": " coup", "10219": "Mark", "10220": " Event", "10221": " sheet", "10222": " Bow", "10223": " Below", "10224": " distur", "10225": " Sav", "10226": " Captain", "10227": "pack", "10228": " cognitive", "10229": " encouraging", "10230": " dreams", "10231": " Pers", "10232": " seized", "10233": " interviewed", "10234": " deployed", "10235": " violations", "10236": " camps", "10237": " comics", "10238": " constitu", "10239": " Reagan", "10240": " glad", "10241": " reserved", "10242": " buck", "10243": " employers", "10244": "atus", "10245": " aims", "10246": " functional", "10247": " Sa", "10248": " mystery", "10249": " displayed", "10250": "Paul", "10251": "iban", "10252": " span", "10253": " loop", "10254": "apore", "10255": " delight", "10256": "cre", "10257": " traged", "10258": " Economic", "10259": "ixture", "10260": " 57", "10261": "ricane", "10262": " occasionally", "10263": " vend", "10264": " Sud", "10265": " export", "10266": "TON", "10267": " birthday", "10268": " heroes", "10269": "wa", "10270": " fatal", "10271": "estyle", "10272": "oga", "10273": " correctly", "10274": " Stew", "10275": " prompted", "10276": " stamp", "10277": " Cole", "10278": "elle", "10279": " contemporary", "10280": " Access", "10281": " Jenn", "10282": " prospects", "10283": "oting", "10284": " Ve", "10285": " irre", "10286": "AB", "10287": " recommendations", "10288": " diplomatic", "10289": "throp", "10290": " pa", "10291": "ighth", "10292": "mir", "10293": " bell", "10294": " parallel", "10295": " exclud", "10296": "eling", "10297": " constitution", "10298": "onz", "10299": " disappointed", "10300": " manufacturers", "10301": " adequ", "10302": " intr", "10303": " Staff", "10304": " moderate", "10305": " Ever", "10306": " Dog", "10307": "ols", "10308": " ecosystem", "10309": " accompan", "10310": "Time", "10311": " demanded", "10312": "vi", "10313": " 85", "10314": " GDP", "10315": " Photos", "10316": " nose", "10317": " Montreal", "10318": " Dick", "10319": "ailable", "10320": " interpre", "10321": "endar", "10322": " pleased", "10323": "2017", "10324": "rowing", "10325": " labour", "10326": " lifetime", "10327": " Brooklyn", "10328": " Tax", "10329": " Est", "10330": " Reserve", "10331": "rock", "10332": " communicate", "10333": " fights", "10334": " modified", "10335": "non", "10336": " drunk", "10337": " Ocean", "10338": " sessions", "10339": " wedding", "10340": " knock", "10341": " explosion", "10342": " Library", "10343": " biological", "10344": " repair", "10345": " landed", "10346": " EPA", "10347": " 58", "10348": " Authority", "10349": " subsc", "10350": " representation", "10351": " Given", "10352": " artificial", "10353": "250", "10354": "leans", "10355": "fit", "10356": "Fi", "10357": " relation", "10358": " owns", "10359": "ixon", "10360": " Khan", "10361": " Antonio", "10362": " Digital", "10363": " lift", "10364": "agen", "10365": " designer", "10366": "rot", "10367": " recon", "10368": "Thanks", "10369": " emp", "10370": " consciousness", "10371": " kicked", "10372": " Order", "10373": " defender", "10374": " hanging", "10375": " lessons", "10376": "hist", "10377": " imposed", "10378": " guests", "10379": " adopt", "10380": " anonymous", "10381": "150", "10382": " sli", "10383": " concerning", "10384": "wind", "10385": " pregnant", "10386": " Five", "10387": "incoln", "10388": " Bul", "10389": " underground", "10390": " maintaining", "10391": " asset", "10392": "acre", "10393": " Alan", "10394": " punch", "10395": " Rome", "10396": "bourne", "10397": " shirt", "10398": " ingredients", "10399": "Update", "10400": " cheese", "10401": " intellig", "10402": "isition", "10403": " Channel", "10404": " Convention", "10405": " podcast", "10406": " interior", "10407": "graph", "10408": "\":\"", "10409": " emotions", "10410": "ching", "10411": "human", "10412": " abstract", "10413": " Argent", "10414": " couples", "10415": " lesson", "10416": " creature", "10417": " resolve", "10418": " shocked", "10419": " oppose", "10420": "Whe", "10421": " summit", "10422": " performances", "10423": " SU", "10424": " volunteers", "10425": " Burn", "10426": "Dis", "10427": " Bol", "10428": " soldier", "10429": "\u00d1\u0083", "10430": "some", "10431": " stimul", "10432": " logo", "10433": "\u00e0\u00a4", "10434": "appropri", "10435": "istant", "10436": " terr", "10437": "ben", "10438": " vocal", "10439": " accum", "10440": " girlfriend", "10441": " Protection", "10442": "ulty", "10443": " jumped", "10444": " annoy", "10445": " Page", "10446": "wed", "10447": " jihad", "10448": " mile", "10449": " nurs", "10450": "SE", "10451": " Lear", "10452": "dr", "10453": " 600", "10454": " militants", "10455": "acles", "10456": "user", "10457": " guid", "10458": " Fant", "10459": " Missouri", "10460": " professionals", "10461": "Gener", "10462": "(\"", "10463": " Anna", "10464": "Instead", "10465": "ikh", "10466": "ials", "10467": " butter", "10468": " swit", "10469": " refers", "10470": " desktop", "10471": " traveling", "10472": " libr", "10473": "gets", "10474": " isolated", "10475": " forum", "10476": " advocate", "10477": " existed", "10478": " opposing", "10479": " Coal", "10480": " recalled", "10481": "\u00e2\u0080\u00a6.", "10482": "Next", "10483": "Station", "10484": " Case", "10485": "Israel", "10486": " integration", "10487": " describing", "10488": " boxes", "10489": " JavaScript", "10490": " Orleans", "10491": "early", "10492": " stro", "10493": "CD", "10494": " Mail", "10495": " minimal", "10496": " Hal", "10497": "tainment", "10498": " confused", "10499": " Custom", "10500": " SD", "10501": "umph", "10502": " peaceful", "10503": " inherent", "10504": "odge", "10505": " surrounded", "10506": " vert", "10507": "cal", "10508": "sa", "10509": "gate", "10510": "owned", "10511": " Capitol", "10512": "hattan", "10513": " Hand", "10514": "commun", "10515": " holes", "10516": " meal", "10517": " 1989", "10518": " integrity", "10519": " Know", "10520": " Player", "10521": "siss", "10522": " Barb", "10523": " pm", "10524": " inspiration", "10525": " configuration", "10526": " sne", "10527": " Trust", "10528": " Rs", "10529": "hero", "10530": "\u00f0\u009f", "10531": " expense", "10532": "issis", "10533": " credits", "10534": " Non", "10535": "abe", "10536": " Ban", "10537": " subur", "10538": " ideology", "10539": " electoral", "10540": " yell", "10541": " silent", "10542": " dual", "10543": " Marine", "10544": " Doctor", "10545": " stack", "10546": " suspic", "10547": " buried", "10548": "TE", "10549": " Nevada", "10550": "\u00c3\u00a7", "10551": "imize", "10552": " desperate", "10553": " Occ", "10554": "starter", "10555": "Id", "10556": "\u00d0\u00ba", "10557": " scream", "10558": " clip", "10559": " choosing", "10560": " bombs", "10561": "atics", "10562": "Trans", "10563": " CB", "10564": " bands", "10565": " teammates", "10566": " fleet", "10567": " SH", "10568": "iens", "10569": " convert", "10570": " acceptable", "10571": "tra", "10572": " Orlando", "10573": "ibl", "10574": " jer", "10575": "Gu", "10576": " Wright", "10577": " registration", "10578": "List", "10579": " Portug", "10580": " Hitler", "10581": " brutal", "10582": "awks", "10583": "SU", "10584": "Net", "10585": " Move", "10586": " scar", "10587": " ancest", "10588": " Online", "10589": " Alliance", "10590": "election", "10591": " subscribe", "10592": " struggles", "10593": "aro", "10594": " keyboard", "10595": " momentum", "10596": " Leban", "10597": " Area", "10598": " promotion", "10599": " Arsenal", "10600": " Ven", "10601": " evident", "10602": "Fl", "10603": " quit", "10604": "hire", "10605": "father", "10606": "Name", "10607": " organisation", "10608": " wondering", "10609": " Indones", "10610": " closest", "10611": "mits", "10612": "too", "10613": " embrace", "10614": " Steel", "10615": "books", "10616": "isd", "10617": " Following", "10618": " refugee", "10619": " Hamp", "10620": " teeth", "10621": "ART", "10622": " probe", "10623": " Han", "10624": " utter", "10625": "Speaking", "10626": "chell", "10627": " athe", "10628": " Word", "10629": " occasional", "10630": " monster", "10631": "strong", "10632": " assembly", "10633": " bankrupt", "10634": " references", "10635": " journalism", "10636": " expenses", "10637": " subsequently", "10638": "oub", "10639": "stop", "10640": "oker", "10641": " pride", "10642": " guards", "10643": " Mun", "10644": " interpretation", "10645": " Venezuel", "10646": " yeah", "10647": "\u00ef\u00bc", "10648": "hr", "10649": " removing", "10650": " orbit", "10651": " Independent", "10652": " lin", "10653": "Gl", "10654": " Writ", "10655": " profound", "10656": "ipedia", "10657": "rett", "10658": "2012", "10659": " Pittsburgh", "10660": " compromise", "10661": " knife", "10662": " districts", "10663": " exclusively", "10664": " survived", "10665": " Source", "10666": " considerable", "10667": " stating", "10668": " engaging", "10669": " Could", "10670": " refuse", "10671": " bird", "10672": " characteristics", "10673": " Mountain", "10674": " Raj", "10675": " justify", "10676": "HP", "10677": " dominated", "10678": " 72", "10679": "QL", "10680": " briefly", "10681": " Nazi", "10682": "bound", "10683": "arson", "10684": " Rest", "10685": " chip", "10686": " ministers", "10687": " prost", "10688": "grad", "10689": " electron", "10690": " tremendous", "10691": " contrary", "10692": "rend", "10693": " gri", "10694": " sustainable", "10695": "Share", "10696": " loaded", "10697": " flour", "10698": " disappear", "10699": " nervous", "10700": " routes", "10701": "orneys", "10702": " proportion", "10703": " sophistic", "10704": "attered", "10705": " executed", "10706": "ocated", "10707": " 800", "10708": "elve", "10709": " Duke", "10710": " asylum", "10711": "utter", "10712": " Everyone", "10713": " gameplay", "10714": " sexually", "10715": "700", "10716": "Thank", "10717": "Hey", "10718": " Bu", "10719": " pir", "10720": " donors", "10721": " confusion", "10722": " Dream", "10723": " revolutionary", "10724": "amine", "10725": "cap", "10726": " Aaron", "10727": " Andy", "10728": " Pant", "10729": "Ag", "10730": " curious", "10731": " Treasury", "10732": " harsh", "10733": "limited", "10734": "lihood", "10735": "income", "10736": "KE", "10737": " attending", "10738": " Adams", "10739": "immer", "10740": " IM", "10741": "\u00c3\u00a8", "10742": "security", "10743": "UC", "10744": " speakers", "10745": " cabinet", "10746": "\u00c3\u00b3n", "10747": " nowhere", "10748": "reek", "10749": " flee", "10750": " void", "10751": " brands", "10752": " chronic", "10753": " printed", "10754": " Tesla", "10755": " Short", "10756": " charging", "10757": " engines", "10758": " physics", "10759": "reck", "10760": " Having", "10761": "function", "10762": " Mult", "10763": " concert", "10764": "scar", "10765": " Sheriff", "10766": " outcomes", "10767": "inge", "10768": " Aren", "10769": " Officer", "10770": "MAN", "10771": "ublished", "10772": "olid", "10773": "otte", "10774": " orient", "10775": "inst", "10776": " mirror", "10777": " Jun", "10778": " strengthen", "10779": " Gib", "10780": "thood", "10781": " fails", "10782": "opt", "10783": " spo", "10784": " obser", "10785": " chaos", "10786": ".]", "10787": " passenger", "10788": " iPad", "10789": " Current", "10790": " criminals", "10791": " fel", "10792": " Spir", "10793": " steady", "10794": " lobb", "10795": " Robinson", "10796": " Nether", "10797": "merce", "10798": " \u00c2\u00b1", "10799": " robust", "10800": " Manhattan", "10801": " CON", "10802": "white", "10803": "IE", "10804": " endors", "10805": " speculation", "10806": " Change", "10807": "reshold", "10808": " certific", "10809": " deemed", "10810": " Taliban", "10811": " dropping", "10812": " hiring", "10813": " Norm", "10814": " Giants", "10815": " Singapore", "10816": " Alp", "10817": " integrated", "10818": " Perry", "10819": " presents", "10820": " avo", "10821": " Band", "10822": " FA", "10823": " guaranteed", "10824": "apper", "10825": " fert", "10826": " epic", "10827": " leaked", "10828": " Ts", "10829": " Kings", "10830": " packages", "10831": "mble", "10832": " pleasure", "10833": "BN", "10834": " suspension", "10835": " challenged", "10836": " packed", "10837": " checking", "10838": "\u00e0\u00b8", "10839": " bits", "10840": "good", "10841": " vit", "10842": " engagement", "10843": " radiation", "10844": " slot", "10845": " bombing", "10846": " Hu", "10847": " patri", "10848": "leep", "10849": " da", "10850": " alert", "10851": "Pal", "10852": "istle", "10853": " wet", "10854": "rics", "10855": " hunting", "10856": " USB", "10857": " Tel", "10858": "riv", "10859": "\u00c4\u0081", "10860": " produces", "10861": " witnesses", "10862": " Craig", "10863": "ophob", "10864": " editorial", "10865": " defended", "10866": " recovered", "10867": " Holy", "10868": "mented", "10869": "Red", "10870": " developments", "10871": " simultaneously", "10872": " boom", "10873": " Log", "10874": " bacteria", "10875": " blocking", "10876": "Right", "10877": " Later", "10878": " 59", "10879": " attracted", "10880": " 66", "10881": " figured", "10882": " Opp", "10883": " Hung", "10884": " correl", "10885": " alliance", "10886": " researcher", "10887": " taxpayers", "10888": " Entertainment", "10889": " Les", "10890": " None", "10891": " caps", "10892": "card", "10893": "imb", "10894": " Jeremy", "10895": " hosts", "10896": " cinem", "10897": " patent", "10898": " Russians", "10899": "izarre", "10900": " examine", "10901": "ATCH", "10902": " Future", "10903": " variables", "10904": "aste", "10905": "ERE", "10906": " Lincoln", "10907": "ifier", "10908": " oxy", "10909": " embed", "10910": " junior", "10911": "lynn", "10912": "ateful", "10913": "Black", "10914": " Gh", "10915": "uter", "10916": " Chairman", "10917": " publish", "10918": " Tower", "10919": "JP", "10920": " tear", "10921": "oned", "10922": " 62", "10923": "test", "10924": " meth", "10925": " breast", "10926": " Vlad", "10927": "DR", "10928": "gly", "10929": " vent", "10930": " Poland", "10931": " Ukrainian", "10932": " Studies", "10933": "adesh", "10934": "gged", "10935": "dep", "10936": " enact", "10937": "Car", "10938": "may", "10939": " Dak", "10940": " flights", "10941": "omic", "10942": " accuracy", "10943": " flav", "10944": " Wi", "10945": " distribut", "10946": " los", "10947": " impacts", "10948": " surprisingly", "10949": " solo", "10950": " raises", "10951": " burned", "10952": " Kit", "10953": " ric", "10954": " Bor", "10955": "dam", "10956": " Sci", "10957": " angle", "10958": "secutive", "10959": " Would", "10960": " evac", "10961": " qualified", "10962": " decrease", "10963": " CPU", "10964": "oft", "10965": "nie", "10966": " evolved", "10967": "vas", "10968": " flavor", "10969": "olitical", "10970": "imir", "10971": " unnecess", "10972": "aco", "10973": " assemb", "10974": " Total", "10975": " intimid", "10976": "wich", "10977": " Ub", "10978": " courtesy", "10979": " OR", "10980": "Cor", "10981": " fingers", "10982": " MPs", "10983": "rition", "10984": " productive", "10985": " voc", "10986": " blamed", "10987": "etheless", "10988": " HIV", "10989": " dependent", "10990": " expecting", "10991": " transferred", "10992": " Rangers", "10993": " enabled", "10994": " identical", "10995": " visits", "10996": " expects", "10997": " lane", "10998": "dict", "10999": " Gill", "11000": "bul", "11001": " ignor", "11002": " accord", "11003": " Griff", "11004": "terror", "11005": "ishers", "11006": "anim", "11007": "Book", "11008": " Stewart", "11009": " venture", "11010": "bin", "11011": " CC", "11012": " barg", "11013": " shops", "11014": " departure", "11015": " Command", "11016": "Br", "11017": " Mississ", "11018": " killer", "11019": " repeal", "11020": " motivated", "11021": " restore", "11022": " agreements", "11023": " Du", "11024": " conflicts", "11025": "thodox", "11026": " organis", "11027": " scared", "11028": " forgotten", "11029": "df", "11030": " Think", "11031": "iden", "11032": "icked", "11033": "ulse", "11034": " inher", "11035": " nationwide", "11036": " Edition", "11037": "bian", "11038": " cycl", "11039": " influenced", "11040": " criteria", "11041": " Ni", "11042": "ernand", "11043": " occupied", "11044": " animation", "11045": " BC", "11046": " trailer", "11047": " ranking", "11048": " Pope", "11049": " Should", "11050": " Things", "11051": " `", "11052": " backs", "11053": "ahoo", "11054": " telephone", "11055": " occasion", "11056": "TO", "11057": "about", "11058": "unity", "11059": " analys", "11060": " Reddit", "11061": " functionality", "11062": " checked", "11063": " concentration", "11064": " Model", "11065": "looking", "11066": " households", "11067": "link", "11068": " reass", "11069": "onduct", "11070": " algorithm", "11071": " courage", "11072": "rah", "11073": "ressing", "11074": " Support", "11075": " promoted", "11076": " Hug", "11077": "oup", "11078": " imprison", "11079": "aments", "11080": " explicitly", "11081": " batter", "11082": " desp", "11083": " babies", "11084": "iar", "11085": " tanks", "11086": " ought", "11087": " static", "11088": " Product", "11089": " releasing", "11090": " antib", "11091": " Place", "11092": "rike", "11093": " subtle", "11094": "Former", "11095": "ILL", "11096": " stats", "11097": " bases", "11098": " strip", "11099": " doct", "11100": "large", "11101": "uating", "11102": "\u00e2\u0094\u0080\u00e2\u0094", "11103": " privilege", "11104": " Jerry", "11105": "MB", "11106": " Moreover", "11107": "agine", "11108": " Ent", "11109": "Gr", "11110": " Warner", "11111": " NO", "11112": " meters", "11113": " entrance", "11114": "ippi", "11115": " nod", "11116": " tower", "11117": " investigated", "11118": "Three", "11119": " senators", "11120": "zone", "11121": " Cold", "11122": " Canadians", "11123": "iere", "11124": " hub", "11125": " wise", "11126": " overl", "11127": " applies", "11128": " formula", "11129": " Standard", "11130": "ollar", "11131": " Eb", "11132": " Egyptian", "11133": " mart", "11134": " Christopher", "11135": " inevitable", "11136": "breaking", "11137": " uncertainty", "11138": " provider", "11139": "actor", "11140": " painting", "11141": " continu", "11142": " modest", "11143": " lens", "11144": " influential", "11145": " destination", "11146": " Queens", "11147": " Map", "11148": "forward", "11149": "izations", "11150": "\",\"", "11151": " chips", "11152": "being", "11153": "Supp", "11154": " ally", "11155": " infection", "11156": " dimin", "11157": "leading", "11158": " Univers", "11159": " jet", "11160": "kes", "11161": " solely", "11162": " belt", "11163": " screw", "11164": " inaug", "11165": " 63", "11166": " insist", "11167": "Good", "11168": "Yeah", "11169": "rying", "11170": " TR", "11171": " Niger", "11172": " theft", "11173": "uccess", "11174": " Marg", "11175": " politician", "11176": " Alaska", "11177": " transparency", "11178": " PlayStation", "11179": " invested", "11180": " singer", "11181": " immune", "11182": " Ottawa", "11183": " provisions", "11184": "istance", "11185": " Stock", "11186": "town", "11187": " handled", "11188": "overs", "11189": " py", "11190": " uncomfort", "11191": "ampa", "11192": " Olympics", "11193": " Louisiana", "11194": " impressed", "11195": " inbox", "11196": " Oil", "11197": " operator", "11198": "SD", "11199": "ardo", "11200": "untu", "11201": " Netherlands", "11202": "Em", "11203": " balls", "11204": " tent", "11205": "ilation", "11206": " Jane", "11207": " colleg", "11208": " similarly", "11209": " lifestyle", "11210": " headlines", "11211": "idal", "11212": "offs", "11213": "olas", "11214": " boards", "11215": "rifice", "11216": "?)", "11217": " Trek", "11218": "comp", "11219": " disabled", "11220": "thur", "11221": " Kr", "11222": "ante", "11223": "ixel",
[...]
